{
 "src_user": {
  "U102": 24,
  "U175": 25,
  "U22": 26,
  "U2460": 27,
  "U3321": 28,
  "U3532": 29,
  "U36": 30,
  "U394": 31,
  "U4617": 32,
  "U4806": 33,
  "U5099": 34,
  "U5233": 35,
  "U52": 36,
  "U5393": 37,
  "U6039": 38,
  "U6438": 39,
  "U65": 40,
  "U66": 41,
  "U7420": 42,
  "U78": 43,
  "U7948": 44,
  "U79": 45,
  "U7": 46,
  "U8547": 47,
  "U90": 48,
  "U963": 49,
  "U9654": 50,
  "U101": 51,
  "U1067": 52,
  "U113": 53,
  "U1431": 54,
  "U147": 55,
  "U15": 56,
  "U1788": 57,
  "U198": 58,
  "U19": 59,
  "U1": 60,
  "U20": 61,
  "U21": 62,
  "U23": 63,
  "U2404": 64,
  "U24": 65,
  "U25": 66,
  "U26": 67,
  "U2789": 68,
  "U27": 69,
  "U2842": 70,
  "U292": 71,
  "U30": 72,
  "U32": 73,
  "U3630": 74,
  "U3849": 75,
  "U3": 76,
  "U415": 77,
  "U4196": 78,
  "U42": 79,
  "U4424": 80,
  "U45": 81,
  "U4695": 82,
  "U48": 83,
  "U491": 84,
  "U4": 85,
  "U516": 86,
  "U5171": 87,
  "U59": 88,
  "U608": 89,
  "U63": 90,
  "U6447": 91,
  "U6": 92,
  "U732": 93,
  "U73": 94,
  "U76": 95,
  "U77": 96,
  "U811": 97,
  "U86": 98,
  "U8813": 99,
  "U88": 100,
  "U898": 101,
  "U8": 102,
  "U926": 103,
  "U107": 104,
  "U10": 105,
  "U1195": 106,
  "U12": 107,
  "U1366": 108,
  "U13": 109,
  "U14": 110,
  "U1651": 111,
  "U16": 112,
  "U1782": 113,
  "U2198": 114,
  "U2483": 115,
  "U3116": 116,
  "U3526": 117,
  "U35": 118,
  "U3852": 119,
  "U396": 120,
  "U424": 121,
  "U4535": 122,
  "U4610": 123,
  "U4850": 124,
  "U5160": 125,
  "U5276": 126,
  "U5710": 127,
  "U5": 128,
  "U6276": 129,
  "U631": 130,
  "U6897": 131,
  "U7021": 132,
  "U7115": 133,
  "U71": 134,
  "U793": 135,
  "U8480": 136,
  "U87": 137,
  "U161": 138,
  "U2097": 139,
  "U2205": 140,
  "U2248": 141,
  "U2256": 142,
  "U2453": 143,
  "U2": 144,
  "U3084": 145,
  "U31": 146,
  "U34": 147,
  "U5184": 148,
  "U7178": 149,
  "U7844": 150,
  "U8406": 151,
  "U9273": 152,
  "U9652": 153,
  "U9": 154,
  "U1187": 155,
  "U1325": 156,
  "U304": 157,
  "U3294": 158,
  "U367": 159,
  "U3739": 160,
  "U3861": 161,
  "U4008": 162,
  "U4141": 163,
  "U4345": 164,
  "U43": 165,
  "U442": 166,
  "U53": 167,
  "U54": 168,
  "U6215": 169,
  "U7912": 170,
  "U795": 171,
  "U7965": 172,
  "U9310": 173,
  "U9373": 174,
  "U94": 175,
  "U1155": 176,
  "U11": 177,
  "U1283": 178,
  "U1411": 179,
  "U180": 180,
  "U2599": 181,
  "U301": 182,
  "U3439": 183,
  "U3643": 184,
  "U4252": 185,
  "U4581": 186,
  "U495": 187,
  "U5651": 188,
  "U7054": 189,
  "U7186": 190,
  "U726": 191,
  "U7609": 192,
  "U7893": 193,
  "U8320": 194,
  "U9027": 195,
  "U945": 196,
  "U1117": 197,
  "U119": 198,
  "U2766": 199,
  "U3019": 200,
  "U3195": 201,
  "U33": 202,
  "U47": 203,
  "U5129": 204,
  "U6163": 205,
  "U667": 206,
  "U7539": 207,
  "U9155": 208,
  "U9235": 209,
  "U103": 210,
  "U1377": 211,
  "U1469": 212,
  "U157": 213,
  "U2322": 214,
  "U3553": 215,
  "U4057": 216,
  "U4130": 217,
  "U4856": 218,
  "U5164": 219,
  "U5428": 220,
  "U560": 221,
  "U571": 222,
  "U6168": 223,
  "U6378": 224,
  "U7221": 225,
  "U75": 226,
  "U824": 227,
  "U83": 228,
  "U8929": 229,
  "U129": 230,
  "U4180": 231,
  "U6676": 232,
  "U6706": 233,
  "U6743": 234,
  "U9557": 235,
  "U2143": 236,
  "U2193": 237,
  "U2899": 238,
  "U3265": 239,
  "U3597": 240,
  "U4287": 241,
  "U4495": 242,
  "U4772": 243,
  "U530": 244,
  "U5702": 245,
  "U61": 246,
  "U6560": 247,
  "U6668": 248,
  "U68": 249,
  "U69": 250,
  "U838": 251,
  "U8999": 252,
  "U9292": 253,
  "U1854": 254,
  "U199": 255,
  "U2066": 256,
  "U2366": 257,
  "U3432": 258,
  "U3696": 259,
  "U3841": 260,
  "U4456": 261,
  "U4674": 262,
  "U4936": 263,
  "U5419": 264,
  "U7626": 265,
  "U9532": 266,
  "U1050": 267,
  "U149": 268,
  "U1529": 269,
  "U172": 270,
  "U1950": 271,
  "U2265": 272,
  "U2449": 273,
  "U2991": 274,
  "U3003": 275,
  "U4638": 276,
  "U46": 277,
  "U6291": 278,
  "U6354": 279,
  "U7353": 280,
  "U7719": 281,
  "U846": 282,
  "U909": 283,
  "U9120": 284,
  "U9126": 285,
  "U9623": 286,
  "U108": 287,
  "U1308": 288,
  "U155": 289,
  "U156": 290,
  "U158": 291,
  "U159": 292,
  "U160": 293,
  "U2919": 294,
  "U3958": 295,
  "U4285": 296,
  "U432": 297,
  "U6142": 298,
  "U6359": 299,
  "U70": 300,
  "U7304": 301,
  "U74": 302,
  "U7528": 303,
  "U8457": 304,
  "U9087": 305,
  "U9456": 306,
  "U1172": 307,
  "U17": 308,
  "U206": 309,
  "U2971": 310,
  "U3664": 311,
  "U3771": 312,
  "U4223": 313,
  "U4403": 314,
  "U4795": 315,
  "U4952": 316,
  "U5187": 317,
  "U5189": 318,
  "U7865": 319,
  "U2962": 320,
  "U41": 321,
  "U453": 322,
  "U4725": 323,
  "U6445": 324,
  "U730": 325,
  "U8294": 326,
  "U8556": 327,
  "U9190": 328,
  "U9319": 329,
  "U9351": 330,
  "U9481": 331,
  "U1094": 332,
  "U1101": 333,
  "U1150": 334,
  "U1733": 335,
  "U2554": 336,
  "U2637": 337,
  "U3154": 338,
  "U3218": 339,
  "U401": 340,
  "U4708": 341,
  "U5524": 342,
  "U8909": 343,
  "U111": 344,
  "U1214": 345,
  "U2338": 346,
  "U256": 347,
  "U2643": 348,
  "U341": 349,
  "U6553": 350,
  "U8695": 351,
  "U2195": 352,
  "U2765": 353,
  "U3525": 354,
  "U4665": 355,
  "U537": 356,
  "U5486": 357,
  "U584": 358,
  "U7151": 359,
  "U72": 360,
  "U818": 361,
  "U890": 362,
  "U1282": 363,
  "U1486": 364,
  "U2447": 365,
  "U4076": 366,
  "U5834": 367,
  "U7761": 368,
  "U813": 369,
  "U8176": 370,
  "U849": 371,
  "U125": 372,
  "U343": 373,
  "U3747": 374,
  "U4559": 375,
  "U5294": 376,
  "U6502": 377,
  "U6527": 378,
  "U7488": 379,
  "U767": 380,
  "U9792": 381,
  "U123": 382,
  "U1491": 383,
  "U1528": 384,
  "U2064": 385,
  "U238": 386,
  "U3534": 387,
  "U467": 388,
  "U5520": 389,
  "U5565": 390,
  "U642": 391,
  "U93": 392,
  "U1124": 393,
  "U124": 394,
  "U1356": 395,
  "U1451": 396,
  "U5698": 397,
  "U5901": 398,
  "U6534": 399,
  "U1723": 400,
  "U202": 401,
  "U2727": 402,
  "U3303": 403,
  "U3373": 404,
  "U3491": 405,
  "U37": 406,
  "U574": 407,
  "U617": 408,
  "U636": 409,
  "U6865": 410,
  "U973": 411,
  "U1024": 412,
  "U1096": 413,
  "U3624": 414,
  "U5119": 415,
  "U6000": 416,
  "U7222": 417,
  "U769": 418,
  "U8751": 419,
  "U958": 420,
  "U1918": 421,
  "U2995": 422,
  "U4356": 423,
  "U5886": 424,
  "U6984": 425,
  "U7417": 426,
  "U741": 427,
  "U8960": 428,
  "U1244": 429,
  "U1342": 430,
  "U214": 431,
  "U2250": 432,
  "U3682": 433,
  "U49": 434,
  "U5659": 435,
  "U7489": 436,
  "U7623": 437,
  "U7774": 438,
  "U1375": 439,
  "U3487": 440,
  "U3646": 441,
  "U4374": 442,
  "U668": 443,
  "U798": 444,
  "U222": 445,
  "U259": 446,
  "U260": 447,
  "U261": 448,
  "U262": 449,
  "U4719": 450,
  "U5210": 451,
  "U6552": 452,
  "U880": 453,
  "U9174": 454,
  "U9391": 455,
  "U9478": 456,
  "U10473": 457,
  "U4918": 458,
  "U5000": 459,
  "U6220": 460,
  "U7880": 461,
  "U8769": 462,
  "U932": 463,
  "U9629": 464,
  "U4061": 465,
  "U423": 466,
  "U6319": 467,
  "U8870": 468,
  "U176": 469,
  "U1809": 470,
  "U1825": 471,
  "U3802": 472,
  "U4096": 473,
  "U5782": 474,
  "U7712": 475,
  "U962": 476,
  "U626": 477,
  "U3282": 478,
  "U8027": 479,
  "U2997": 480,
  "U5974": 481,
  "U6211": 482,
  "U8016": 483,
  "U9527": 484,
  "U208": 485,
  "U2895": 486,
  "U9021": 487,
  "U9142": 488,
  "U5525": 489,
  "U523": 490,
  "U6166": 491,
  "U7694": 492,
  "U8087": 493,
  "U1137": 494,
  "U1321": 495,
  "U1490": 496,
  "U2407": 497,
  "U3099": 498,
  "U679": 499,
  "U1847": 500,
  "U2039": 501,
  "U2822": 502,
  "U4523": 503,
  "U6251": 504,
  "U9485": 505,
  "U11025": 506,
  "U1592": 507,
  "U1642": 508,
  "U1721": 509,
  "U833": 510,
  "U9376": 511,
  "U10271": 512,
  "U12104": 513,
  "U3538": 514,
  "U5547": 515,
  "U7134": 516,
  "U952": 517,
  "U1052": 518,
  "U1365": 519,
  "U3511": 520,
  "U4204": 521,
  "U8343": 522,
  "U8455": 523,
  "U9099": 524,
  "U109": 525,
  "U229": 526,
  "U4922": 527,
  "U912": 528,
  "U9344": 529,
  "U1405": 530,
  "U5724": 531,
  "U6364": 532,
  "U244": 533,
  "U258": 534,
  "U2751": 535,
  "U3753": 536,
  "U4216": 537,
  "U4997": 538,
  "U50": 539,
  "U5554": 540,
  "U6084": 541,
  "U7374": 542,
  "U200": 543,
  "U2436": 544,
  "U3611": 545,
  "U5018": 546,
  "U6946": 547,
  "U861": 548,
  "U1066": 549,
  "U1349": 550,
  "U1627": 551,
  "U2497": 552,
  "U2866": 553,
  "U342": 554,
  "U4246": 555,
  "U5312": 556,
  "U2863": 557,
  "U4684": 558,
  "U6623": 559,
  "U3292": 560,
  "U5113": 561,
  "U7452": 562,
  "U9079": 563,
  "U1316": 564,
  "U2473": 565,
  "U3073": 566,
  "U3457": 567,
  "U4173": 568,
  "U4524": 569,
  "U6766": 570,
  "U7927": 571,
  "U3148": 572,
  "U3974": 573,
  "U581": 574,
  "U9003": 575,
  "U9483": 576,
  "U9646": 577,
  "U7387": 578,
  "U11242": 579,
  "U197": 580,
  "U2390": 581,
  "U329": 582,
  "U1589": 583,
  "U8559": 584,
  "U8756": 585,
  "U9776": 586,
  "U1776": 587,
  "U306": 588,
  "U7482": 589,
  "U3162": 590,
  "U3727": 591,
  "U3858": 592,
  "U7730": 593,
  "U1631": 594,
  "U5803": 595,
  "U9745": 596,
  "U1292": 597,
  "U1963": 598,
  "U6412": 599,
  "U839": 600,
  "U8560": 601,
  "U1230": 602,
  "U183": 603,
  "U2614": 604,
  "U3633": 605,
  "U1179": 606,
  "U210": 607,
  "U2345": 608,
  "U240": 609,
  "U7010": 610,
  "U1509": 611,
  "U391": 612,
  "U9636": 613,
  "U1610": 614,
  "U279": 615,
  "U5191": 616,
  "U1003": 617,
  "U1198": 618,
  "U2424": 619,
  "U5069": 620,
  "U6870": 621,
  "U1163": 622,
  "U4845": 623,
  "U5585": 624,
  "U5975": 625,
  "U9576": 626,
  "U1408": 627,
  "U1902": 628,
  "U4313": 629,
  "U5512": 630,
  "U7602": 631,
  "U1829": 632,
  "U6983": 633,
  "U3249": 634,
  "U5843": 635,
  "U194": 636,
  "U227": 637,
  "U2964": 638,
  "U4499": 639,
  "U5150": 640,
  "U5704": 641,
  "U9520": 642,
  "U1908": 643,
  "U2045": 644,
  "U2364": 645,
  "U768": 646,
  "U234": 647,
  "U2602": 648,
  "U2668": 649,
  "U4693": 650,
  "U10476": 651,
  "U3032": 652,
  "U7857": 653,
  "U8721": 654,
  "U5235": 655,
  "U5932": 656,
  "U6568": 657,
  "U928": 658,
  "U7192": 659,
  "U4357": 660,
  "U6935": 661,
  "U8596": 662,
  "U9199": 663,
  "U1021": 664,
  "U494": 665,
  "U5144": 666,
  "U6092": 667,
  "U757": 668,
  "U1877": 669,
  "U3069": 670,
  "U5684": 671,
  "U8730": 672,
  "U6551": 673,
  "U739": 674,
  "U7551": 675,
  "U1832": 676,
  "U577": 677,
  "U3098": 678,
  "U6072": 679,
  "U6490": 680,
  "U995": 681,
  "U1353": 682,
  "U5546": 683,
  "U6087": 684,
  "U9687": 685,
  "U10969": 686,
  "U4847": 687,
  "U7007": 688,
  "U9441": 689,
  "U248": 690,
  "U4675": 691,
  "U6333": 692,
  "U720": 693,
  "U9417": 694,
  "U4144": 695,
  "U461": 696,
  "U6569": 697,
  "U8973": 698,
  "U935": 699,
  "U2046": 700,
  "U257": 701,
  "U7205": 702,
  "U8724": 703,
  "U9340": 704,
  "U115": 705,
  "U162": 706,
  "U2229": 707,
  "U878": 708,
  "U5414": 709,
  "U7566": 710,
  "U18": 711,
  "U3445": 712,
  "U7669": 713,
  "U9186": 714,
  "U1734": 715,
  "U2581": 716,
  "U902": 717,
  "U3790": 718,
  "U4266": 719,
  "U5134": 720,
  "U5181": 721,
  "U5471": 722,
  "U6146": 723,
  "U3740": 724,
  "U4896": 725,
  "U522": 726,
  "U7450": 727,
  "U98": 728,
  "U11483": 729,
  "U3923": 730,
  "U609": 731,
  "U95": 732,
  "U3204": 733,
  "U3332": 734,
  "U3427": 735,
  "U8886": 736,
  "U1129": 737,
  "U1390": 738,
  "U310": 739,
  "U8149": 740,
  "U1993": 741,
  "U2833": 742,
  "U5067": 743,
  "U5368": 744,
  "U5477": 745,
  "U4340": 746,
  "U6395": 747,
  "U1934": 748,
  "U2266": 749,
  "U3211": 750,
  "U5658": 751,
  "U242": 752,
  "U4274": 753,
  "U4423": 754,
  "U4745": 755,
  "U6371": 756,
  "U1833": 757,
  "U3988": 758,
  "U4653": 759,
  "U477": 760,
  "U646": 761,
  "U10475": 762,
  "U2088": 763,
  "U3695": 764,
  "U5275": 765,
  "U561": 766,
  "U7676": 767,
  "U9407": 768,
  "U9597": 769,
  "U446": 770,
  "U4828": 771,
  "U6082": 772,
  "U8688": 773,
  "U3907": 774,
  "U5602": 775,
  "U7905": 776,
  "U857": 777,
  "U6494": 778,
  "U7075": 779,
  "U9549": 780,
  "U4642": 781,
  "U4876": 782,
  "U192": 783,
  "U2604": 784,
  "U298": 785,
  "U7568": 786,
  "U2290": 787,
  "U743": 788,
  "U9507": 789,
  "U263": 790,
  "U2785": 791,
  "U6181": 792,
  "U907": 793,
  "U1226": 794,
  "U145": 795,
  "U3705": 796,
  "U435": 797,
  "U7204": 798,
  "U4700": 799,
  "U5286": 800,
  "U9741": 801,
  "U11195": 802,
  "U1382": 803,
  "U5752": 804,
  "U1056": 805,
  "U134": 806,
  "U3316": 807,
  "U4998": 808,
  "U5676": 809,
  "U8687": 810,
  "U4626": 811,
  "U359": 812,
  "U4673": 813,
  "U5394": 814,
  "U5812": 815,
  "U9283": 816,
  "U7974": 817,
  "U8777": 818,
  "U4541": 819,
  "U6967": 820,
  "U9045": 821,
  "U2327": 822,
  "U8697": 823,
  "U8826": 824,
  "U991": 825,
  "U164": 826,
  "U3609": 827,
  "U4754": 828,
  "U7557": 829,
  "U190": 830,
  "U3115": 831,
  "U5025": 832,
  "U728": 833,
  "U10874": 834,
  "U2349": 835,
  "U4190": 836,
  "U4779": 837,
  "U5548": 838,
  "U6411": 839,
  "U6523": 840,
  "U10770": 841,
  "U3113": 842,
  "U848": 843,
  "U9034": 844,
  "U191": 845,
  "U6040": 846,
  "U6249": 847,
  "U7638": 848,
  "U2513": 849,
  "U6547": 850,
  "U660": 851,
  "U281": 852,
  "U29": 853,
  "U5271": 854,
  "U9198": 855,
  "U12153": 856,
  "U5463": 857,
  "U8127": 858,
  "U9154": 859,
  "U1343": 860,
  "U237": 861,
  "U399": 862,
  "U400": 863,
  "U8793": 864,
  "U9693": 865,
  "U5679": 866,
  "U986": 867,
  "U418": 868,
  "U6222": 869,
  "U6396": 870,
  "U6670": 871,
  "U1940": 872,
  "U2651": 873,
  "U3035": 874,
  "U1992": 875,
  "U5249": 876,
  "U7590": 877,
  "U3000": 878,
  "U6515": 879,
  "U8918": 880,
  "U7290": 881,
  "U815": 882,
  "U8876": 883,
  "U971": 884,
  "U217": 885,
  "U2745": 886,
  "U441": 887,
  "U5895": 888,
  "U729": 889,
  "U7564": 890,
  "U3053": 891,
  "U228": 892,
  "U2979": 893,
  "U4598": 894,
  "U8408": 895,
  "U1862": 896,
  "U773": 897,
  "U2114": 898,
  "U3825": 899,
  "U9246": 900,
  "U9258": 901,
  "U320": 902,
  "U5209": 903,
  "U5626": 904,
  "U141": 905,
  "U1930": 906,
  "U4516": 907,
  "U5037": 908,
  "U763": 909,
  "U9322": 910,
  "U9744": 911,
  "U4562": 912,
  "U3563": 913,
  "U8308": 914,
  "U1370": 915,
  "U4786": 916,
  "U4817": 917,
  "U5148": 918,
  "U3310": 919,
  "U1900": 920,
  "U2929": 921,
  "U303": 922,
  "U5086": 923,
  "U629": 924,
  "U7053": 925,
  "U847": 926,
  "U8780": 927,
  "U388": 928,
  "U458": 929,
  "U6271": 930,
  "U835": 931,
  "U2273": 932,
  "U255": 933,
  "U291": 934,
  "U6365": 935,
  "U3227": 936,
  "U3281": 937,
  "U4714": 938,
  "U4957": 939,
  "U535": 940,
  "U5927": 941,
  "U9689": 942,
  "U2471": 943,
  "U3590": 944,
  "U430": 945,
  "U6507": 946,
  "U3339": 947,
  "U5998": 948,
  "U2492": 949,
  "U5265": 950,
  "U1176": 951,
  "U5367": 952,
  "U711": 953,
  "U4540": 954,
  "U5450": 955,
  "U5674": 956,
  "U6151": 957,
  "U6711": 958,
  "U10414": 959,
  "U404": 960,
  "U6677": 961,
  "U7831": 962,
  "U405": 963,
  "U5566": 964,
  "U3639": 965,
  "U4350": 966,
  "U4385": 967,
  "U5851": 968,
  "U961": 969,
  "U3234": 970,
  "U5755": 971,
  "U395": 972,
  "U2902": 973,
  "U309": 974,
  "U4364": 975,
  "U7525": 976,
  "U1416": 977,
  "U344": 978,
  "U10403": 979,
  "U1076": 980,
  "U3508": 981,
  "U3793": 982,
  "U5075": 983,
  "U915": 984,
  "U3589": 985,
  "U5711": 986,
  "U332": 987,
  "U4819": 988,
  "U9650": 989,
  "U2402": 990,
  "U5396": 991,
  "U7856": 992,
  "U1513": 993,
  "U2435": 994,
  "U7591": 995,
  "U9277": 996,
  "U114": 997,
  "U9127": 998,
  "U1347": 999,
  "U316": 1000,
  "U4470": 1001,
  "U6286": 1002,
  "U1086": 1003,
  "U4782": 1004,
  "U7687": 1005,
  "U8195": 1006,
  "U9196": 1007,
  "U1885": 1008,
  "U2664": 1009,
  "U3805": 1010,
  "U5787": 1011,
  "U707": 1012,
  "U9064": 1013,
  "U3570": 1014,
  "U6838": 1015,
  "U153": 1016,
  "U3437": 1017,
  "U6382": 1018,
  "U8201": 1019,
  "U1333": 1020,
  "U431": 1021,
  "U5850": 1022,
  "U3539": 1023,
  "U5640": 1024,
  "U4371": 1025,
  "U5868": 1026,
  "U1083": 1027,
  "U1815": 1028,
  "U272": 1029,
  "U422": 1030,
  "U5597": 1031,
  "U1770": 1032,
  "U3903": 1033,
  "U5020": 1034,
  "U5706": 1035,
  "U9461": 1036,
  "U2033": 1037,
  "U3389": 1038,
  "U542": 1039,
  "U5855": 1040,
  "U1301": 1041,
  "U201": 1042,
  "U6246": 1043,
  "U6843": 1044,
  "U8755": 1045,
  "U284": 1046,
  "U1450": 1047,
  "U4331": 1048,
  "U4735": 1049,
  "U9210": 1050,
  "U213": 1051,
  "U2333": 1052,
  "U9237": 1053,
  "U130": 1054,
  "U2618": 1055,
  "U285": 1056,
  "U6739": 1057,
  "U8723": 1058,
  "U6622": 1059,
  "U9134": 1060,
  "U731": 1061,
  "U8790": 1062,
  "U10763": 1063,
  "U2550": 1064,
  "U7020": 1065,
  "U8796": 1066,
  "U3123": 1067,
  "U4164": 1068,
  "U5215": 1069,
  "U5342": 1070,
  "U7549": 1071,
  "U9014": 1072,
  "U144": 1073,
  "U4969": 1074,
  "U8070": 1075,
  "U5624": 1076,
  "U5937": 1077,
  "U7276": 1078,
  "U1055": 1079,
  "U1228": 1080,
  "U2576": 1081,
  "U5622": 1082,
  "U860": 1083,
  "U1489": 1084,
  "U2188": 1085,
  "U5504": 1086,
  "U5174": 1087,
  "U2288": 1088,
  "U4668": 1089,
  "U788": 1090,
  "U8677": 1091,
  "U3275": 1092,
  "U3444": 1093,
  "U5951": 1094,
  "U2247": 1095,
  "U4169": 1096,
  "U5091": 1097,
  "U5186": 1098,
  "U2468": 1099,
  "U2906": 1100,
  "U3483": 1101,
  "U8008": 1102,
  "U2211": 1103,
  "U2286": 1104,
  "U3926": 1105,
  "U605": 1106,
  "U3730": 1107,
  "U4208": 1108,
  "U5926": 1109,
  "U7542": 1110,
  "U1882": 1111,
  "U5311": 1112,
  "U7039": 1113,
  "U1128": 1114,
  "U365": 1115,
  "U7798": 1116,
  "U886": 1117,
  "U2746": 1118,
  "U409": 1119,
  "U4831": 1120,
  "U602": 1121,
  "U7769": 1122,
  "U490": 1123,
  "U6643": 1124,
  "U7197": 1125,
  "U781": 1126,
  "U4478": 1127,
  "U5302": 1128,
  "U7171": 1129,
  "U7494": 1130,
  "U2461": 1131,
  "U3836": 1132,
  "U764": 1133,
  "U9136": 1134,
  "U650": 1135,
  "U1345": 1136,
  "U7660": 1137,
  "U3001": 1138,
  "U7666": 1139,
  "U2009": 1140,
  "U4310": 1141,
  "U5527": 1142,
  "U752": 1143,
  "U9225": 1144,
  "U3527": 1145,
  "U5007": 1146,
  "U5742": 1147,
  "U9238": 1148,
  "U9639": 1149,
  "U3615": 1150,
  "U4807": 1151,
  "U5238": 1152,
  "U6360": 1153,
  "U9364": 1154,
  "U4014": 1155,
  "U1233": 1156,
  "U2329": 1157,
  "U2848": 1158,
  "U362": 1159,
  "U5941": 1160,
  "U8495": 1161,
  "U351": 1162,
  "U6598": 1163,
  "U9488": 1164,
  "U12185": 1165,
  "U2798": 1166,
  "U296": 1167,
  "U4321": 1168,
  "U1097": 1169,
  "U1134": 1170,
  "U6157": 1171,
  "U7580": 1172,
  "U4622": 1173,
  "U9167": 1174,
  "U1046": 1175,
  "U358": 1176,
  "U4717": 1177,
  "U5579": 1178,
  "U8806": 1179,
  "U4710": 1180,
  "U2308": 1181,
  "U315": 1182,
  "U9296": 1183,
  "U1087": 1184,
  "U1989": 1185,
  "U4021": 1186,
  "U7647": 1187,
  "U55": 1188,
  "U5758": 1189,
  "U4925": 1190,
  "U7408": 1191,
  "U2583": 1192,
  "U4114": 1193,
  "U1209": 1194,
  "U178": 1195,
  "U4302": 1196,
  "U2532": 1197,
  "U4381": 1198,
  "U6504": 1199,
  "U7947": 1200,
  "U1243": 1201,
  "U2575": 1202,
  "U5814": 1203,
  "U649": 1204,
  "U4676": 1205,
  "U7465": 1206,
  "U3295": 1207,
  "U3584": 1208,
  "U6110": 1209,
  "U7702": 1210,
  "U8264": 1211,
  "U5365": 1212,
  "U6162": 1213,
  "U3054": 1214,
  "U4298": 1215,
  "U6372": 1216,
  "U9312": 1217,
  "U4872": 1218,
  "U7396": 1219,
  "U1502": 1220,
  "U1573": 1221,
  "U2973": 1222,
  "U1482": 1223,
  "U4863": 1224,
  "U1535": 1225,
  "U699": 1226,
  "U2494": 1227,
  "U2569": 1228,
  "U4323": 1229,
  "U7473": 1230,
  "U8822": 1231,
  "U7000": 1232,
  "U12257": 1233,
  "U3241": 1234,
  "U2225": 1235,
  "U4414": 1236,
  "U5864": 1237,
  "U9335": 1238,
  "U5257": 1239,
  "U7527": 1240,
  "U1035": 1241,
  "U1122": 1242,
  "U6391": 1243,
  "U6401": 1244,
  "U9051": 1245,
  "U6096": 1246,
  "U8896": 1247,
  "U4602": 1248,
  "U7658": 1249,
  "U2738": 1250,
  "U4178": 1251,
  "U4821": 1252,
  "U5200": 1253,
  "U5306": 1254,
  "U5324": 1255,
  "U5330": 1256,
  "U8597": 1257,
  "U100": 1258,
  "U1202": 1259,
  "U1286": 1260,
  "U1423": 1261,
  "U4560": 1262,
  "U6407": 1263,
  "U9268": 1264,
  "U999": 1265,
  "U2262": 1266,
  "U904": 1267,
  "U2149": 1268,
  "U2947": 1269,
  "U3620": 1270,
  "U7480": 1271,
  "U239": 1272,
  "U3617": 1273,
  "U8898": 1274,
  "U3561": 1275,
  "U504": 1276,
  "U5693": 1277,
  "U645": 1278,
  "U8085": 1279,
  "U9596": 1280,
  "U1000": 1281,
  "U1977": 1282,
  "U235": 1283,
  "U4380": 1284,
  "U5592": 1285,
  "U9224": 1286,
  "U117": 1287,
  "U7725": 1288,
  "U1203": 1289,
  "U1728": 1290,
  "U6650": 1291,
  "U9398": 1292,
  "U9453": 1293,
  "U269": 1294,
  "U5451": 1295,
  "U6661": 1296,
  "U2568": 1297,
  "U5774": 1298,
  "U1216": 1299,
  "U207": 1300,
  "U2578": 1301,
  "U5443": 1302,
  "U5697": 1303,
  "U8324": 1304,
  "U2012": 1305,
  "U3280": 1306,
  "U4480": 1307,
  "U2818": 1308,
  "U9121": 1309,
  "U2049": 1310,
  "U379": 1311,
  "U4692": 1312,
  "U5429": 1313,
  "U5813": 1314,
  "U924": 1315,
  "U6232": 1316,
  "U6293": 1317,
  "U9311": 1318,
  "U3622": 1319,
  "U4027": 1320,
  "U655": 1321,
  "U8136": 1322,
  "U2041": 1323,
  "U402": 1324,
  "U7267": 1325,
  "U8676": 1326,
  "U3694": 1327,
  "U6140": 1328,
  "U2588": 1329,
  "U3466": 1330,
  "U3480": 1331,
  "U3927": 1332,
  "U4813": 1333,
  "U595": 1334,
  "U7770": 1335,
  "U893": 1336,
  "U1215": 1337,
  "U1330": 1338,
  "U1417": 1339,
  "U5644": 1340,
  "U5745": 1341,
  "U780": 1342,
  "U2142": 1343,
  "U305": 1344,
  "U5468": 1345,
  "U5952": 1346,
  "U933": 1347,
  "U9680": 1348,
  "U1579": 1349,
  "U9116": 1350,
  "U3546": 1351,
  "U457": 1352,
  "U801": 1353,
  "U8968": 1354,
  "U9203": 1355,
  "U3030": 1356,
  "U478": 1357,
  "U6135": 1358,
  "U9140": 1359,
  "U268": 1360,
  "U2867": 1361,
  "U8976": 1362,
  "U9534": 1363,
  "U3009": 1364,
  "U693": 1365,
  "U3058": 1366,
  "U3906": 1367,
  "U7583": 1368,
  "U8117": 1369,
  "U8850": 1370,
  "U8987": 1371,
  "U212": 1372,
  "U4221": 1373,
  "U843": 1374,
  "U1499": 1375,
  "U1608": 1376,
  "U4102": 1377,
  "U8124": 1378,
  "U998": 1379,
  "U2396": 1380,
  "U1462": 1381,
  "U2661": 1382,
  "U428": 1383,
  "U466": 1384,
  "U5228": 1385,
  "U563": 1386,
  "U6475": 1387,
  "U2993": 1388,
  "U4213": 1389,
  "U503": 1390,
  "U1254": 1391,
  "U2974": 1392,
  "U5465": 1393,
  "U5776": 1394,
  "U6658": 1395,
  "U8969": 1396,
  "U1138": 1397,
  "U413": 1398,
  "U8353": 1399,
  "U871": 1400,
  "U10464": 1401,
  "U6454": 1402,
  "U7100": 1403,
  "U714": 1404,
  "U9436": 1405,
  "U7516": 1406,
  "U7990": 1407,
  "U804": 1408,
  "U4473": 1409,
  "U914": 1410,
  "U345": 1411,
  "U5375": 1412,
  "U681": 1413,
  "U694": 1414,
  "U7606": 1415,
  "U2772": 1416,
  "U2879": 1417,
  "U7560": 1418,
  "U6009": 1419,
  "U7745": 1420,
  "U1177": 1421,
  "U3648": 1422,
  "U6673": 1423,
  "U702": 1424,
  "U2876": 1425,
  "U3821": 1426,
  "U5412": 1427,
  "U9697": 1428,
  "U5595": 1429,
  "U6918": 1430,
  "U1159": 1431,
  "U3806": 1432,
  "U761": 1433,
  "U8952": 1434,
  "U9602": 1435,
  "U2078": 1436,
  "U313": 1437,
  "U3591": 1438,
  "U3995": 1439,
  "U6390": 1440,
  "U2834": 1441,
  "U2845": 1442,
  "U3231": 1443,
  "U436": 1444,
  "U8727": 1445,
  "U3911": 1446,
  "U4172": 1447,
  "U4365": 1448,
  "U4387": 1449,
  "U4608": 1450,
  "U5104": 1451,
  "U2645": 1452,
  "U3720": 1453,
  "U6224": 1454,
  "U1154": 1455,
  "U2096": 1456,
  "U2232": 1457,
  "U6709": 1458,
  "U7298": 1459,
  "U4508": 1460,
  "U8379": 1461,
  "U8851": 1462,
  "U3455": 1463,
  "U685": 1464,
  "U1702": 1465,
  "U5574": 1466,
  "U6306": 1467,
  "U140": 1468,
  "U2106": 1469,
  "U2441": 1470,
  "U4868": 1471,
  "U531": 1472,
  "U654": 1473,
  "U2493": 1474,
  "U2935": 1475,
  "U5405": 1476,
  "U9384": 1477,
  "U691": 1478,
  "U7579": 1479,
  "U312": 1480,
  "U6037": 1481,
  "U1207": 1482,
  "U2470": 1483,
  "U4566": 1484,
  "U790": 1485,
  "U2454": 1486,
  "U4916": 1487,
  "U1236": 1488,
  "U3433": 1489,
  "U8767": 1490,
  "U1145": 1491,
  "U4579": 1492,
  "U6289": 1493,
  "U7491": 1494,
  "U9613": 1495,
  "U3482": 1496,
  "U6298": 1497,
  "U944": 1498,
  "U5808": 1499,
  "U1065": 1500,
  "U1460": 1501,
  "U1821": 1502,
  "U2989": 1503,
  "U6495": 1504,
  "U9288": 1505,
  "U6837": 1506,
  "U9211": 1507,
  "U7003": 1508,
  "U8671": 1509,
  "U9314": 1510,
  "U12322": 1511,
  "U3569": 1512,
  "U5349": 1513,
  "U5619": 1514,
  "U1591": 1515,
  "U1112": 1516,
  "U3960": 1517,
  "U6073": 1518,
  "U8459": 1519,
  "U9448": 1520,
  "U2815": 1521,
  "U2683": 1522,
  "U3691": 1523,
  "U390": 1524,
  "U4595": 1525,
  "U5476": 1526,
  "U1238": 1527,
  "U2526": 1528,
  "U3658": 1529,
  "U5712": 1530,
  "U116": 1531,
  "U9383": 1532,
  "U9598": 1533,
  "U4258": 1534,
  "U6456": 1535,
  "U2518": 1536,
  "U4072": 1537,
  "U5667": 1538,
  "U8823": 1539,
  "U8989": 1540,
  "U7036": 1541,
  "U8997": 1542,
  "U4834": 1543,
  "U5093": 1544,
  "U5116": 1545,
  "U6813": 1546,
  "U3029": 1547,
  "U3359": 1548,
  "U8663": 1549,
  "U9503": 1550,
  "U264": 1551,
  "U770": 1552,
  "U9521": 1553,
  "U4033": 1554,
  "U7804": 1555,
  "U881": 1556,
  "U10135": 1557,
  "U8591": 1558,
  "U8951": 1559,
  "U1068": 1560,
  "U9328": 1561,
  "U1232": 1562,
  "U1379": 1563,
  "U179": 1564,
  "U2185": 1565,
  "U3325": 1566,
  "U368": 1567,
  "U4324": 1568,
  "U1600": 1569,
  "U5345": 1570,
  "U5484": 1571,
  "U6005": 1572,
  "U1813": 1573,
  "U4440": 1574,
  "U7645": 1575,
  "U230": 1576,
  "U3847": 1577,
  "U558": 1578,
  "U8060": 1579,
  "U9275": 1580,
  "U539": 1581,
  "U5865": 1582,
  "U8583": 1583,
  "U5361": 1584,
  "U7855": 1585,
  "U5193": 1586,
  "U5992": 1587,
  "U836": 1588,
  "U2073": 1589,
  "U2118": 1590,
  "U2910": 1591,
  "U596": 1592,
  "U288": 1593,
  "U3203": 1594,
  "U5473": 1595,
  "U931": 1596,
  "U978": 1597,
  "U2816": 1598,
  "U4109": 1599,
  "U1364": 1600,
  "U1639": 1601,
  "U6388": 1602,
  "U8192": 1603,
  "U867": 1604,
  "U1915": 1605,
  "U314": 1606,
  "U5415": 1607,
  "U6282": 1608,
  "U5437": 1609,
  "U897": 1610,
  "U521": 1611,
  "U5351": 1612,
  "U5731": 1613,
  "U7876": 1614,
  "U716": 1615,
  "U8872": 1616,
  "U9101": 1617,
  "U996": 1618,
  "U2342": 1619,
  "U4094": 1620,
  "U7519": 1621,
  "U1253": 1622,
  "U131": 1623,
  "U1703": 1624,
  "U2654": 1625,
  "U3062": 1626,
  "U1025": 1627,
  "U1312": 1628,
  "U1309": 1629,
  "U1403": 1630,
  "U148": 1631,
  "U2304": 1632,
  "U3645": 1633,
  "U1040": 1634,
  "U5085": 1635,
  "U6419": 1636,
  "U2552": 1637,
  "U11694": 1638,
  "U7972": 1639,
  "U11425": 1640,
  "U6774": 1641,
  "U8798": 1642,
  "U3130": 1643,
  "U5245": 1644,
  "U3603": 1645,
  "U5717": 1646,
  "U4276": 1647,
  "U6888": 1648,
  "U866": 1649,
  "U875": 1650,
  "U9208": 1651,
  "U3936": 1652,
  "U8647": 1653,
  "U9066": 1654,
  "U9090": 1655,
  "U2753": 1656,
  "U4320": 1657,
  "U3733": 1658,
  "U4260": 1659,
  "U4588": 1660,
  "U7882": 1661,
  "U8693": 1662,
  "U9028": 1663,
  "U6875": 1664,
  "U5055": 1665,
  "U9830": 1666,
  "U1999": 1667,
  "U2666": 1668,
  "U4444": 1669,
  "U5409": 1670,
  "U62": 1671,
  "U8293": 1672,
  "U1344": 1673,
  "U6098": 1674,
  "U7843": 1675,
  "U2945": 1676,
  "U6257": 1677,
  "U2610": 1678,
  "U5236": 1679,
  "U308": 1680,
  "U5612": 1681,
  "U2731": 1682,
  "U5356": 1683,
  "U6374": 1684,
  "U2301": 1685,
  "U2770": 1686,
  "U6994": 1687,
  "U737": 1688,
  "U1339": 1689,
  "U4934": 1690,
  "U5801": 1691,
  "U852": 1692,
  "U686": 1693,
  "U232": 1694,
  "U286": 1695,
  "U4482": 1696,
  "U3110": 1697,
  "U3463": 1698,
  "U4134": 1699,
  "U420": 1700,
  "U6370": 1701,
  "U7559": 1702,
  "U903": 1703,
  "U2852": 1704,
  "U2392": 1705,
  "U3284": 1706,
  "U4448": 1707,
  "U643": 1708,
  "U6862": 1709,
  "U2069": 1710,
  "U3890": 1711,
  "U895": 1712,
  "U293": 1713,
  "U3145": 1714,
  "U6443": 1715,
  "U748": 1716,
  "U8508": 1717,
  "U5216": 1718,
  "U9494": 1719,
  "U1268": 1720,
  "U167": 1721,
  "U3093": 1722,
  "U340": 1723,
  "U593": 1724,
  "U6685": 1725,
  "U9389": 1726,
  "U4832": 1727,
  "U6760": 1728,
  "U7518": 1729,
  "U8862": 1730,
  "U2782": 1731,
  "U6192": 1732,
  "U6697": 1733,
  "U869": 1734,
  "U3082": 1735,
  "U3134": 1736,
  "U8703": 1737,
  "U2210": 1738,
  "U3485": 1739,
  "U551": 1740,
  "U7849": 1741,
  "U2996": 1742,
  "U718": 1743,
  "U3576": 1744,
  "U5783": 1745,
  "U754": 1746,
  "U8700": 1747,
  "U9192": 1748,
  "U9443": 1749,
  "U953": 1750,
  "U1599": 1751,
  "U2309": 1752,
  "U174": 1753,
  "U2667": 1754,
  "U3947": 1755,
  "U5880": 1756,
  "U7894": 1757,
  "U8231": 1758,
  "U8689": 1759,
  "U1160": 1760,
  "U4685": 1761,
  "U5222": 1762,
  "U7728": 1763,
  "U1785": 1764,
  "U2330": 1765,
  "U5413": 1766,
  "U9255": 1767,
  "U7571": 1768,
  "U526": 1769,
  "U11152": 1770,
  "U2346": 1771,
  "U2475": 1772,
  "U576": 1773,
  "U7182": 1774,
  "U4009": 1775,
  "U8726": 1776,
  "U4897": 1777,
  "U725": 1778,
  "U1192": 1779,
  "U2652": 1780,
  "U2926": 1781,
  "U6506": 1782,
  "U4463": 1783,
  "U8718": 1784,
  "U8772": 1785,
  "U673": 1786,
  "U10437": 1787,
  "U3167": 1788,
  "U360": 1789,
  "U2405": 1790,
  "U4648": 1791,
  "U7581": 1792,
  "U864": 1793,
  "U6230": 1794,
  "U1100": 1795,
  "U9304": 1796,
  "U1841": 1797,
  "U7006": 1798,
  "U7592": 1799,
  "U9669": 1800,
  "U165": 1801,
  "U4272": 1802,
  "U473": 1803,
  "U540": 1804,
  "U819": 1805,
  "U8256": 1806,
  "U9083": 1807,
  "U4923": 1808,
  "U6846": 1809,
  "U7726": 1810,
  "U5338": 1811,
  "U543": 1812,
  "U9659": 1813,
  "U2375": 1814,
  "U429": 1815,
  "U5158": 1816,
  "U988": 1817,
  "U1249": 1818,
  "U4464": 1819,
  "U205": 1820,
  "U5140": 1821,
  "U1310": 1822,
  "U545": 1823,
  "U619": 1824,
  "U2361": 1825,
  "U5459": 1826,
  "U7704": 1827,
  "U8753": 1828,
  "U7784": 1829,
  "U1306": 1830,
  "U3120": 1831,
  "U3138": 1832,
  "U4654": 1833,
  "U5385": 1834,
  "U556": 1835,
  "U5920": 1836,
  "U5934": 1837,
  "U10410": 1838,
  "U1952": 1839,
  "U5389": 1840,
  "U544": 1841,
  "U630": 1842,
  "U3101": 1843,
  "U4224": 1844,
  "U2116": 1845,
  "U282": 1846,
  "U5999": 1847,
  "U2299": 1848,
  "U3537": 1849,
  "U377": 1850,
  "U4103": 1851,
  "U1098": 1852,
  "U2499": 1853,
  "U2542": 1854,
  "U5514": 1855,
  "U1394": 1856,
  "U4029": 1857,
  "U5154": 1858,
  "U1263": 1859,
  "U1694": 1860,
  "U4067": 1861,
  "U9633": 1862,
  "U1273": 1863,
  "U2182": 1864,
  "U2382": 1865,
  "U3406": 1866,
  "U9010": 1867,
  "U250": 1868,
  "U697": 1869,
  "U9632": 1870,
  "U151": 1871,
  "U2894": 1872,
  "U4777": 1873,
  "U5777": 1874,
  "U637": 1875,
  "U6715": 1876,
  "U9662": 1877,
  "U7755": 1878,
  "U799": 1879,
  "U805": 1880,
  "U8690": 1881,
  "U1446": 1882,
  "U2508": 1883,
  "U4083": 1884,
  "U4534": 1885,
  "U6903": 1886,
  "U7690": 1887,
  "U1539": 1888,
  "U2624": 1889,
  "U4020": 1890,
  "U5535": 1891,
  "U163": 1892,
  "U3421": 1893,
  "U7008": 1894,
  "U8403": 1895,
  "U3548": 1896,
  "U5982": 1897,
  "U603": 1898,
  "U6828": 1899,
  "U2498": 1900,
  "U2360": 1901,
  "U941": 1902,
  "U1250": 1903,
  "U2014": 1904,
  "U2735": 1905,
  "U469": 1906,
  "U5173": 1907,
  "U6267": 1908,
  "U274": 1909,
  "U4121": 1910,
  "U553": 1911,
  "U9230": 1912,
  "U698": 1913,
  "U2887": 1914,
  "U3178": 1915,
  "U4312": 1916,
  "U8067": 1917,
  "U6052": 1918,
  "U6260": 1919,
  "U834": 1920,
  "U9318": 1921,
  "U2272": 1922,
  "U5273": 1923,
  "U651": 1924,
  "U1221": 1925,
  "U9390": 1926,
  "U226": 1927,
  "U3408": 1928,
  "U8653": 1929,
  "U4197": 1930,
  "U6055": 1931,
  "U2893": 1932,
  "U666": 1933,
  "U5017": 1934,
  "U1110": 1935,
  "U4623": 1936,
  "U6255": 1937,
  "U4634": 1938,
  "U7885": 1939,
  "U370": 1940,
  "U5586": 1941,
  "U5844": 1942,
  "U6278": 1943,
  "U9239": 1944,
  "U8650": 1945,
  "U10472": 1946,
  "U3831": 1947,
  "U4379": 1948,
  "U8305": 1949,
  "U1272": 1950,
  "U218": 1951,
  "U5125": 1952,
  "U8083": 1953,
  "U5822": 1954,
  "U6301": 1955,
  "U2170": 1956,
  "U5631": 1957,
  "U2281": 1958,
  "U3869": 1959,
  "U4603": 1960,
  "U524": 1961,
  "U11756": 1962,
  "U168": 1963,
  "U254": 1964,
  "U3334": 1965,
  "U3585": 1966,
  "U7306": 1967,
  "U348": 1968,
  "U1500": 1969,
  "U1978": 1970,
  "U278": 1971,
  "U2748": 1972,
  "U4290": 1973,
  "U6905": 1974,
  "U1516": 1975,
  "U3683": 1976,
  "U5142": 1977,
  "U5175": 1978,
  "U2029": 1979,
  "U3199": 1980,
  "U3671": 1981,
  "U4023": 1982,
  "U7569": 1983,
  "U2691": 1984,
  "U6350": 1985,
  "U4670": 1986,
  "U5185": 1987,
  "U133": 1988,
  "U2219": 1989,
  "U2630": 1990,
  "U2693": 1991,
  "U7419": 1992,
  "U9026": 1993,
  "U132": 1994,
  "U939": 1995,
  "U1487": 1996,
  "U150": 1997,
  "U1749": 1998,
  "U949": 1999,
  "U6063": 2000,
  "U6512": 2001,
  "U8237": 2002,
  "U9247": 2003,
  "U3360": 2004,
  "U6572": 2005,
  "U2760": 2006,
  "U4666": 2007,
  "U8761": 2008,
  "U2230": 2009,
  "U6639": 2010,
  "U7670": 2011,
  "U2057": 2012,
  "U4200": 2013,
  "U6143": 2014,
  "U3353": 2015,
  "U7622": 2016,
  "U1278": 2017,
  "U3967": 2018,
  "U5452": 2019,
  "U5578": 2020,
  "U6632": 2021,
  "U6652": 2022,
  "U6882": 2023,
  "U7762": 2024,
  "U9006": 2025,
  "U9497": 2026,
  "U8920": 2027,
  "U3763": 2028,
  "U634": 2029,
  "U4919": 2030,
  "U9231": 2031,
  "U3133": 2032,
  "U9747": 2033,
  "U3129": 2034,
  "U9379": 2035,
  "U7780": 2036,
  "U1174": 2037,
  "U1422": 2038,
  "U2358": 2039,
  "U3270": 2040,
  "U6479": 2041,
  "U1426": 2042,
  "U2537": 2043,
  "U2670": 2044,
  "U2853": 2045,
  "U5824": 2046,
  "U6014": 2047,
  "U6444": 2048,
  "U5079": 2049,
  "U587": 2050,
  "U1322": 2051,
  "U28": 2052,
  "U9046": 2053,
  "U2788": 2054,
  "U7467": 2055,
  "U2907": 2056,
  "U5051": 2057,
  "U1496": 2058,
  "U1923": 2059,
  "U5388": 2060,
  "U364": 2061,
  "U7360": 2062,
  "U9245": 2063,
  "U1947": 2064,
  "U4858": 2065,
  "U9218": 2066,
  "U2067": 2067,
  "U2206": 2068,
  "U4785": 2069,
  "U7659": 2070,
  "U610": 2071,
  "U980": 2072,
  "U1367": 2073,
  "U3832": 2074,
  "U3833": 2075,
  "U4267": 2076,
  "U7809": 2077,
  "U9253": 2078,
  "U5049": 2079,
  "U6587": 2080,
  "U7129": 2081,
  "U2740": 2082,
  "U562": 2083,
  "U751": 2084,
  "U2095": 2085,
  "U598": 2086,
  "U497": 2087,
  "U7213": 2088,
  "U7627": 2089,
  "U9204": 2090,
  "U4942": 2091,
  "U411": 2092,
  "U957": 2093,
  "U2412": 2094,
  "U9681": 2095,
  "U1896": 2096,
  "U2016": 2097,
  "U5382": 2098,
  "U8049": 2099,
  "U1022": 2100,
  "U4660": 2101,
  "U6290": 2102,
  "U8020": 2103,
  "U8901": 2104,
  "U9415": 2105,
  "U1373": 2106,
  "U1412": 2107,
  "U6144": 2108,
  "U7510": 2109,
  "U181": 2110,
  "U3400": 2111,
  "U840": 2112,
  "U8536": 2113,
  "U3122": 2114,
  "U6855": 2115,
  "U7137": 2116,
  "U7994": 2117,
  "U3382": 2118,
  "U3711": 2119,
  "U5183": 2120,
  "U5537": 2121,
  "U5954": 2122,
  "U2598": 2123,
  "U2620": 2124,
  "U299": 2125,
  "U3235": 2126,
  "U4490": 2127,
  "U7674": 2128,
  "U2439": 2129,
  "U4370": 2130,
  "U6065": 2131,
  "U1762": 2132,
  "U8729": 2133,
  "U2289": 2134,
  "U3342": 2135,
  "U4966": 2136,
  "U5418": 2137,
  "U652": 2138,
  "U8614": 2139,
  "U2235": 2140,
  "U375": 2141,
  "U4593": 2142,
  "U6303": 2143,
  "U2362": 2144,
  "U3634": 2145,
  "U8713": 2146,
  "U2813": 2147,
  "U324": 2148,
  "U8864": 2149,
  "U1354": 2150,
  "U5109": 2151,
  "U8841": 2152,
  "U1293": 2153,
  "U783": 2154,
  "U3937": 2155,
  "U2741": 2156,
  "U4016": 2157,
  "U7649": 2158,
  "U475": 2159,
  "U2711": 2160,
  "U6993": 2161,
  "U721": 2162,
  "U9088": 2163,
  "U3323": 2164,
  "U4309": 2165,
  "U5765": 2166,
  "U7138": 2167,
  "U5729": 2168,
  "U6259": 2169,
  "U3962": 2170,
  "U4531": 2171,
  "U1470": 2172,
  "U547": 2173,
  "U7441": 2174,
  "U5232": 2175,
  "U3452": 2176,
  "U4429": 2177,
  "U841": 2178,
  "U1580": 2179,
  "U5423": 2180,
  "U8616": 2181,
  "U5677": 2182,
  "U733": 2183,
  "U4827": 2184,
  "U6528": 2185,
  "U8773": 2186,
  "U1115": 2187,
  "U2479": 2188,
  "U565": 2189,
  "U5892": 2190,
  "U6213": 2191,
  "U8803": 2192,
  "U6132": 2193,
  "U7023": 2194,
  "U9290": 2195,
  "U9462": 2196,
  "U3112": 2197,
  "U3871": 2198,
  "U5319": 2199,
  "U7588": 2200,
  "U1158": 2201,
  "U8564": 2202,
  "U2543": 2203,
  "U3243": 2204,
  "U6795": 2205,
  "U6845": 2206,
  "U506": 2207,
  "U5916": 2208,
  "U5784": 2209,
  "U7084": 2210,
  "U7716": 2211,
  "U943": 2212,
  "U9465": 2213,
  "U2975": 2214,
  "U9506": 2215,
  "U1424": 2216,
  "U2968": 2217,
  "U6050": 2218,
  "U8427": 2219,
  "U1662": 2220,
  "U3535": 2221,
  "U5944": 2222,
  "U2159": 2223,
  "U2194": 2224,
  "U5681": 2225,
  "U825": 2226,
  "U3860": 2227,
  "U4301": 2228,
  "U710": 2229,
  "U8271": 2230,
  "U9755": 2231,
  "U5407": 2232,
  "U2656": 2233,
  "U321": 2234,
  "U2665": 2235,
  "U4651": 2236,
  "U1029": 2237,
  "U2094": 2238,
  "U2688": 2239,
  "U5562": 2240,
  "U6007": 2241,
  "U614": 2242,
  "U1718": 2243,
  "U2640": 2244,
  "U3057": 2245,
  "U9685": 2246,
  "U5106": 2247,
  "U4362": 2248,
  "U653": 2249,
  "U872": 2250,
  "U8828": 2251,
  "U8957": 2252,
  "U2411": 2253,
  "U6625": 2254,
  "U7361": 2255,
  "U1139": 2256,
  "U4218": 2257,
  "U5176": 2258,
  "U3582": 2259,
  "U3043": 2260,
  "U4514": 2261,
  "U510": 2262,
  "U6078": 2263,
  "U615": 2264,
  "U2516": 2265,
  "U2689": 2266,
  "U3523": 2267,
  "U173": 2268,
  "U2584": 2269,
  "U4752": 2270,
  "U493": 2271,
  "U6609": 2272,
  "U8750": 2273,
  "U1958": 2274,
  "U2981": 2275,
  "U5293": 2276,
  "U1284": 2277,
  "U1976": 2278,
  "U2047": 2279,
  "U2530": 2280,
  "U3824": 2281,
  "U5687": 2282,
  "U8816": 2283,
  "U8873": 2284,
  "U5177": 2285,
  "U638": 2286,
  "U7813": 2287,
  "U195": 2288,
  "U80": 2289,
  "U4721": 2290,
  "U5665": 2291,
  "U8247": 2292,
  "U2343": 2293,
  "U3376": 2294,
  "U1378": 2295,
  "U4085": 2296,
  "U6093": 2297,
  "U7707": 2298,
  "U3210": 2299,
  "U5713": 2300,
  "U7792": 2301,
  "U3882": 2302,
  "U4974": 2303,
  "U347": 2304,
  "U8775": 2305,
  "U9180": 2306,
  "U3864": 2307,
  "U4961": 2308,
  "U5570": 2309,
  "U7506": 2310,
  "U6107": 2311,
  "U9438": 2312,
  "U3709": 2313,
  "U5660": 2314,
  "U3271": 2315,
  "U8585": 2316,
  "U1307": 2317,
  "U3293": 2318,
  "U451": 2319,
  "U319": 2320,
  "U5202": 2321,
  "U2201": 2322,
  "U302": 2323,
  "U706": 2324,
  "U9427": 2325,
  "U6926": 2326,
  "U8741": 2327,
  "U2851": 2328,
  "U7265": 2329,
  "U5328": 2330,
  "U8021": 2331,
  "U2732": 2332,
  "U9287": 2333,
  "U2113": 2334,
  "U3184": 2335,
  "U9510": 2336,
  "U1880": 2337,
  "U784": 2338,
  "U993": 2339,
  "U339": 2340,
  "U7413": 2341,
  "U7094": 2342,
  "U6736": 2343,
  "U9309": 2344,
  "U9533": 2345,
  "U2678": 2346,
  "U3545": 2347,
  "U3994": 2348,
  "U5340": 2349,
  "U5416": 2350,
  "U5993": 2351,
  "U8684": 2352,
  "U5593": 2353,
  "U3014": 2354,
  "U5604": 2355,
  "U3005": 2356,
  "U3631": 2357,
  "U5947": 2358,
  "U3556": 2359,
  "U1169": 2360,
  "U327": 2361,
  "U810": 2362,
  "U9361": 2363,
  "U3291": 2364,
  "U393": 2365,
  "U635": 2366,
  "U9163": 2367,
  "U9295": 2368,
  "U3929": 2369,
  "U2432": 2370,
  "U2546": 2371,
  "U443": 2372,
  "U6705": 2373,
  "U280": 2374,
  "U5648": 2375,
  "U6649": 2376,
  "U583": 2377,
  "U1964": 2378,
  "U4227": 2379,
  "U1317": 2380,
  "U3579": 2381,
  "U3823": 2382,
  "U814": 2383,
  "U2622": 2384,
  "U5047": 2385,
  "U8429": 2386,
  "U9500": 2387,
  "U4730": 2388,
  "U8740": 2389,
  "U333": 2390,
  "U882": 2391,
  "U6559": 2392,
  "U9069": 2393,
  "U6954": 2394,
  "U5100": 2395,
  "U8811": 2396,
  "U481": 2397,
  "U9019": 2398,
  "U1670": 2399,
  "U6539": 2400,
  "U7751": 2401,
  "U96": 2402,
  "U534": 2403,
  "U9509": 2404,
  "U4639": 2405,
  "U7746": 2406,
  "U6749": 2407,
  "U3723": 2408,
  "U6460": 2409,
  "U7672": 2410,
  "U9200": 2411,
  "U1019": 2412,
  "U2660": 2413,
  "U974": 2414,
  "U1222": 2415,
  "U6263": 2416,
  "U8344": 2417,
  "U959": 2418,
  "U1186": 2419,
  "U1523": 2420,
  "U4239": 2421,
  "U1164": 2422,
  "U5101": 2423,
  "U554": 2424,
  "U3341": 2425,
  "U3668": 2426,
  "U4816": 2427,
  "U4655": 2428,
  "U4862": 2429,
  "U8937": 2430,
  "U8618": 2431,
  "U1210": 2432,
  "U4004": 2433,
  "U3625": 2434,
  "U8273": 2435,
  "U913": 2436,
  "U9209": 2437,
  "U1905": 2438,
  "U4824": 2439,
  "U5256": 2440,
  "U7567": 2441,
  "U7919": 2442,
  "U3165": 2443,
  "U1361": 2444,
  "U1527": 2445,
  "U5128": 2446,
  "U854": 2447,
  "U2705": 2448,
  "U7686": 2449,
  "U3781": 2450,
  "U6036": 2451,
  "U6790": 2452,
  "U855": 2453,
  "U5854": 2454,
  "U9663": 2455,
  "U5010": 2456,
  "U749": 2457,
  "U3346": 2458,
  "U5837": 2459,
  "U1205": 2460,
  "U4148": 2461,
  "U5288": 2462,
  "U5359": 2463,
  "U9282": 2464,
  "U5553": 2465,
  "U708": 2466,
  "U9425": 2467,
  "U1897": 2468,
  "U9266": 2469,
  "U2275": 2470,
  "U1508": 2471,
  "U8072": 2472,
  "U3085": 2473,
  "U7650": 2474,
  "U3081": 2475,
  "U7752": 2476,
  "U8640": 2477,
  "U121": 2478,
  "U4202": 2479,
  "U4553": 2480,
  "U4549": 2481,
  "U7709": 2482,
  "U4158": 2483,
  "U8661": 2484,
  "U8742": 2485,
  "U2025": 2486,
  "U2551": 2487,
  "U640": 2488,
  "U8974": 2489,
  "U5336": 2490,
  "U3908": 2491,
  "U499": 2492,
  "U8980": 2493,
  "U2063": 2494,
  "U2463": 2495,
  "U5924": 2496,
  "U6089": 2497,
  "U9517": 2498,
  "U1045": 2499,
  "U4044": 2500,
  "U4853": 2501,
  "U9428": 2502,
  "U1227": 2503,
  "U8658": 2504,
  "U6987": 2505,
  "U745": 2506,
  "U5400": 2507,
  "U2507": 2508,
  "U7347": 2509,
  "U92": 2510,
  "U6969": 2511,
  "U4046": 2512,
  "U6083": 2513,
  "U245": 2514,
  "U5496": 2515,
  "U6002": 2516,
  "U9834": 2517,
  "U2837": 2518,
  "U9265": 2519,
  "U2220": 2520,
  "U2451": 2521,
  "U5616": 2522,
  "U8587": 2523,
  "U7604": 2524,
  "U1730": 2525,
  "U2485": 2526,
  "U5552": 2527,
  "U7026": 2528,
  "U2940": 2529,
  "U9175": 2530,
  "U1452": 2531,
  "U3699": 2532,
  "U6514": 2533,
  "U4035": 2534,
  "U5156": 2535,
  "U6428": 2536,
  "U8983": 2537,
  "U1951": 2538,
  "U607": 2539,
  "U7743": 2540,
  "U1374": 2541,
  "U705": 2542,
  "U5560": 2543,
  "U669": 2544,
  "U2830": 2545,
  "U6789": 2546,
  "U4939": 2547,
  "U4300": 2548,
  "U8786": 2549,
  "U4797": 2550,
  "U9249": 2551,
  "U5406": 2552,
  "U2790": 2553,
  "U6026": 2554,
  "U717": 2555,
  "U1396": 2556,
  "U271": 2557,
  "U9405": 2558,
  "U366": 2559,
  "U3901": 2560,
  "U7500": 2561,
  "U2408": 2562,
  "U950": 2563,
  "U7127": 2564,
  "U300": 2565,
  "U9219": 2566,
  "U5460": 2567,
  "U488": 2568,
  "U6423": 2569,
  "U8946": 2570,
  "U437": 2571,
  "U4794": 2572,
  "U6433": 2573,
  "U8012": 2574,
  "U1217": 2575,
  "U4548": 2576,
  "U753": 2577,
  "U1380": 2578,
  "U1924": 2579,
  "U2192": 2580,
  "U7570": 2581,
  "U8639": 2582,
  "U3435": 2583,
  "U5908": 2584,
  "U6619": 2585,
  "U223": 2586,
  "U1855": 2587,
  "U6214": 2588,
  "U4738": 2589,
  "U633": 2590,
  "U3559": 2591,
  "U919": 2592,
  "U1616": 2593,
  "U7703": 2594,
  "U2752": 2595,
  "U5458": 2596,
  "U2457": 2597,
  "U3261": 2598,
  "U8608": 2599,
  "U8069": 2600,
  "U1061": 2601,
  "U3140": 2602,
  "U582": 2603,
  "U6051": 2604,
  "U5060": 2605,
  "U2791": 2606,
  "U3031": 2607,
  "U3745": 2608,
  "U6023": 2609,
  "U618": 2610,
  "U724": 2611,
  "U2212": 2612,
  "U601": 2613,
  "U6053": 2614,
  "U6273": 2615,
  "U4332": 2616,
  "U5212": 2617,
  "U7061": 2618,
  "U7600": 2619,
  "U294": 2620,
  "U6281": 2621,
  "U8099": 2622,
  "U4764": 2623,
  "U2915": 2624,
  "U4812": 2625,
  "U929": 2626,
  "U1328": 2627,
  "U4718": 2628,
  "U2585": 2629,
  "U3973": 2630,
  "U7286": 2631,
  "U7384": 2632,
  "U4449": 2633,
  "U5569": 2634,
  "U513": 2635,
  "U713": 2636,
  "U3267": 2637,
  "U7554": 2638,
  "U883": 2639,
  "U1008": 2640,
  "U3193": 2641,
  "U3839": 2642,
  "U797": 2643,
  "U665": 2644,
  "U1132": 2645,
  "U2682": 2646,
  "U1082": 2647,
  "U2099": 2648,
  "U307": 2649,
  "U9269": 2650,
  "U785": 2651,
  "U7907": 2652,
  "U1890": 2653,
  "U1020": 2654,
  "U5769": 2655,
  "U7459": 2656,
  "U8809": 2657,
  "U5870": 2658,
  "U7275": 2659,
  "U1219": 2660,
  "U3721": 2661,
  "U3944": 2662,
  "U4780": 2663,
  "U930": 2664,
  "U3807": 2665,
  "U7367": 2666,
  "U1178": 2667,
  "U2886": 2668,
  "U942": 2669,
  "U4327": 2670,
  "U2261": 2671,
  "U8861": 2672,
  "U4264": 2673,
  "U4871": 2674,
  "U9159": 2675,
  "U8978": 2676,
  "U9172": 2677,
  "U9031": 2678,
  "U11089": 2679,
  "U8694": 2680,
  "U6698": 2681,
  "U3957": 2682,
  "U7166": 2683,
  "U1064": 2684,
  "U4466": 2685,
  "U7200": 2686,
  "U740": 2687,
  "U4917": 2688,
  "U5522": 2689,
  "U2777": 2690,
  "U3312": 2691,
  "U3015": 2692,
  "U5831": 2693,
  "U9603": 2694,
  "U2076": 2695,
  "U8562": 2696,
  "U2811": 2697,
  "U8040": 2698,
  "U8667": 2699,
  "U8849": 2700,
  "U588": 2701,
  "U734": 2702,
  "U8633": 2703,
  "U2529": 2704,
  "U8053": 2705,
  "U2000": 2706,
  "U3679": 2707,
  "U670": 2708,
  "U9276": 2709,
  "U573": 2710,
  "U5580": 2711,
  "U2671": 2712,
  "U6016": 2713,
  "U171": 2714,
  "U2540": 2715,
  "U3272": 2716,
  "U3692": 2717,
  "U678": 2718,
  "U2744": 2719,
  "U9223": 2720,
  "U354": 2721,
  "U2152": 2722,
  "U9593": 2723,
  "U865": 2724,
  "U1212": 2725,
  "U4330": 2726,
  "U2932": 2727,
  "U4184": 2728,
  "U2897": 2729,
  "U4123": 2730,
  "U417": 2731,
  "U9679": 2732,
  "U5655": 2733,
  "U6294": 2734,
  "U7791": 2735,
  "U2983": 2736,
  "U3665": 2737,
  "U4734": 2738,
  "U6008": 2739,
  "U8710": 2740,
  "U9040": 2741,
  "U5369": 2742,
  "U3899": 2743,
  "U2028": 2744,
  "U2127": 2745,
  "U3263": 2746,
  "U5876": 2747,
  "U350": 2748,
  "U1869": 2749,
  "U459": 2750,
  "U4690": 2751,
  "U1860": 2752,
  "U590": 2753,
  "U3993": 2754,
  "U5718": 2755,
  "U8619": 2756,
  "U5261": 2757,
  "U5599": 2758,
  "U6235": 2759,
  "U680": 2760,
  "U4183": 2761,
  "U4271": 2762,
  "U5823": 2763,
  "U2472": 2764,
  "U3416": 2765,
  "U3502": 2766,
  "U7536": 2767,
  "U1102": 2768,
  "U2007": 2769,
  "U2487": 2770,
  "U599": 2771,
  "U2013": 2772,
  "U3285": 2773,
  "U6768": 2774,
  "U4235": 2775,
  "U8789": 2776,
  "U809": 2777,
  "U385": 2778,
  "U5053": 2779,
  "U2686": 2780,
  "U5251": 2781,
  "U1062": 2782,
  "U8891": 2783,
  "U2659": 2784,
  "U5708": 2785,
  "U6682": 2786,
  "U7553": 2787,
  "U622": 2788,
  "U1350": 2789,
  "U1938": 2790,
  "U4417": 2791,
  "U5043": 2792,
  "U8563": 2793,
  "U1248": 2794,
  "U2562": 2795,
  "U2633": 2796,
  "U1840": 2797,
  "U2163": 2798,
  "U6287": 2799,
  "U1687": 2800,
  "U827": 2801,
  "U859": 2802,
  "U4139": 2803,
  "U4382": 2804,
  "U6283": 2805,
  "U1251": 2806,
  "U196": 2807,
  "U4306": 2808,
  "U1311": 2809,
  "U326": 2810,
  "U5669": 2811,
  "U246": 2812,
  "U9030": 2813,
  "U4759": 2814,
  "U7431": 2815,
  "U8685": 2816,
  "U3246": 2817,
  "U514": 2818,
  "U1340": 2819,
  "U3355": 2820,
  "U4546": 2821,
  "U5456": 2822,
  "U6234": 2823,
  "U1153": 2824,
  "U2720": 2825,
  "U5807": 2826,
  "U4842": 2827,
  "U7508": 2828,
  "U9614": 2829,
  "U2638": 2830,
  "U4953": 2831,
  "U1252": 2832,
  "U2980": 2833,
  "U3415": 2834,
  "U4513": 2835,
  "U6656": 2836,
  "U2718": 2837,
  "U6127": 2838,
  "U5102": 2839,
  "U4712": 2840,
  "U8044": 2841,
  "U8383": 2842,
  "U1463": 2843,
  "U9489": 2844,
  "U1945": 2845,
  "U7470": 2846,
  "U703": 2847,
  "U8759": 2848,
  "U2881": 2849,
  "U2416": 2850,
  "U6198": 2851,
  "U5907": 2852,
  "U9560": 2853,
  "U9754": 2854,
  "U253": 2855,
  "U3443": 2856,
  "U2270": 2857,
  "U2775": 2858,
  "U2287": 2859,
  "U6368": 2860,
  "U3930": 2861,
  "U4294": 2862,
  "U9664": 2863,
  "U6183": 2864,
  "U8956": 2865,
  "U2649": 2866,
  "U386": 2867,
  "U5956": 2868,
  "U7449": 2869,
  "U9558": 2870,
  "U243": 2871,
  "U3266": 2872,
  "U4355": 2873,
  "U4189": 2874,
  "U1888": 2875,
  "U2081": 2876,
  "U349": 2877,
  "U6550": 2878,
  "U4447": 2879,
  "U822": 2880,
  "U856": 2881,
  "U8830": 2882,
  "U8601": 2883,
  "U8915": 2884,
  "U4893": 2885,
  "U6031": 2886,
  "U7154": 2887,
  "U2930": 2888,
  "U8762": 2889,
  "U8820": 2890,
  "U4278": 2891,
  "U2509": 2892,
  "U5145": 2893,
  "U5538": 2894,
  "U9313": 2895,
  "U3650": 2896,
  "U9446": 2897,
  "U1241": 2898,
  "U2354": 2899,
  "U3817": 2900,
  "U4346": 2901,
  "U6048": 2902,
  "U8827": 2903,
  "U1004": 2904,
  "U1190": 2905,
  "U416": 2906,
  "U4756": 2907,
  "U7496": 2908,
  "U5794": 2909,
  "U616": 2910,
  "U4895": 2911,
  "U746": 2912,
  "U9112": 2913,
  "U3822": 2914,
  "U9728": 2915,
  "U2780": 2916,
  "U4174": 2917,
  "U3044": 2918,
  "U8782": 2919,
  "U5849": 2920,
  "U7789": 2921,
  "U9569": 2922,
  "U525": 2923,
  "U9746": 2924,
  "U3602": 2925,
  "U9402": 2926,
  "U9459": 2927,
  "U3715": 2928,
  "U4672": 2929,
  "U9434": 2930,
  "U3687": 2931,
  "U3917": 2932,
  "U6641": 2933,
  "U1661": 2934,
  "U4888": 2935,
  "U4053": 2936,
  "U3236": 2937,
  "U1049": 2938,
  "U5639": 2939,
  "U604": 2940,
  "U977": 2941,
  "U6904": 2942,
  "U969": 2943,
  "U7378": 2944,
  "U1304": 2945,
  "U5668": 2946,
  "U7385": 2947,
  "U8386": 2948,
  "U3942": 2949,
  "U5584": 2950,
  "U1960": 2951,
  "U4703": 2952,
  "U723": 2953,
  "U3522": 2954,
  "U4688": 2955,
  "U803": 2956,
  "U1005": 2957,
  "U5860": 2958,
  "U7108": 2959,
  "U5390": 2960,
  "U5012": 2961,
  "U9263": 2962,
  "U9455": 2963,
  "U1913": 2964,
  "U9170": 2965,
  "U3628": 2966,
  "U5284": 2967,
  "U2174": 2968,
  "U5700": 2969,
  "U1010": 2970,
  "U1985": 2971,
  "U2283": 2972,
  "U8358": 2973,
  "U4996": 2974,
  "U8804": 2975,
  "U3317": 2976,
  "U4521": 2977,
  "U4561": 2978,
  "U3245": 2979,
  "U774": 2980,
  "U9241": 2981,
  "U1583": 2982,
  "U4787": 2983,
  "U8257": 2984,
  "U9327": 2985,
  "U3442": 2986,
  "U3758": 2987,
  "U6532": 2988,
  "U9217": 2989,
  "U9226": 2990,
  "U6482": 2991,
  "U5223": 2992,
  "U1506": 2993,
  "U275": 2994,
  "U3910": 2995,
  "U8339": 2996,
  "U8378": 2997,
  "U1369": 2998,
  "U290": 2999,
  "U9495": 3000,
  "U2293": 3001,
  "U5863": 3002,
  "U7435": 3003,
  "U7484": 3004,
  "U992": 3005,
  "U1111": 3006,
  "U1089": 3007,
  "U2904": 3008,
  "U3205": 3009,
  "U520": 3010,
  "U567": 3011,
  "U1941": 3012,
  "U2401": 3013,
  "U6122": 3014,
  "U5155": 3015,
  "U2176": 3016,
  "U4013": 3017,
  "U1883": 3018,
  "U7152": 3019,
  "U9005": 3020,
  "U6134": 3021,
  "U7427": 3022,
  "U7957": 3023,
  "U888": 3024,
  "U738": 3025,
  "U4150": 3026,
  "U5875": 3027,
  "U9256": 3028,
  "U4462": 3029,
  "U4498": 3030,
  "U476": 3031,
  "U2137": 3032,
  "U828": 3033,
  "U3924": 3034,
  "U1088": 3035,
  "U1131": 3036,
  "U3209": 3037,
  "U2564": 3038,
  "U5130": 3039,
  "U2018": 3040,
  "U11613": 3041,
  "U1058": 3042,
  "U6377": 3043,
  "U7014": 3044,
  "U7455": 3045,
  "U925": 3046,
  "U2065": 3047,
  "U1543": 3048,
  "U5121": 3049,
  "U7845": 3050,
  "U8986": 3051,
  "U9466": 3052,
  "U4104": 3053,
  "U6027": 3054,
  "U7866": 3055,
  "U5341": 3056,
  "U7827": 3057,
  "U9153": 3058,
  "U5015": 3059,
  "U3661": 3060,
  "U5214": 3061,
  "U2749": 3062,
  "U7613": 3063,
  "U5915": 3064,
  "U1211": 3065,
  "U5464": 3066,
  "U4039": 3067,
  "U9187": 3068,
  "U8704": 3069,
  "U2549": 3070,
  "U5986": 3071,
  "U2861": 3072,
  "U6483": 3073,
  "U5953": 3074,
  "U1141": 3075,
  "U482": 3076,
  "U5333": 3077,
  "U760": 3078,
  "U444": 3079,
  "U447": 3080,
  "U3230": 3081,
  "U8757": 3082,
  "U7443": 3083,
  "U2927": 3084,
  "U6079": 3085,
  "U2464": 3086,
  "U1479": 3087,
  "U4436": 3088,
  "U5732": 3089,
  "U1407": 3090,
  "U1766": 3091,
  "U8770": 3092,
  "U2120": 3093,
  "U7815": 3094,
  "U220": 3095,
  "U3158": 3096,
  "U3461": 3097,
  "U5689": 3098,
  "U2074": 3099,
  "U1012": 3100,
  "U2310": 3101,
  "U6272": 3102,
  "U1030": 3103,
  "U4937": 3104,
  "U9695": 3105,
  "U641": 3106,
  "U3986": 3107,
  "U6573": 3108,
  "U9452": 3109,
  "U772": 3110,
  "U2178": 3111,
  "U4256": 3112,
  "U1099": 3113,
  "U4377": 3114,
  "U1042": 3115,
  "U1494": 3116,
  "U5513": 3117,
  "U3686": 3118,
  "U4026": 3119,
  "U5035": 3120,
  "U89": 3121,
  "U6604": 3122,
  "U225": 3123,
  "U3048": 3124,
  "U4400": 3125,
  "U5348": 3126,
  "U5601": 3127,
  "U1534": 3128,
  "U4594": 3129,
  "U8857": 3130,
  "U5568": 3131,
  "U8805": 3132,
  "U8475": 3133,
  "U3803": 3134,
  "U8878": 3135,
  "U9053": 3136,
  "U4640": 3137,
  "U6991": 3138,
  "U2567": 3139,
  "U6308": 3140,
  "U2242": 3141,
  "U4420": 3142,
  "U356": 3143,
  "U5323": 3144,
  "U7056": 3145,
  "U3693": 3146,
  "U9611": 3147,
  "U1069": 3148,
  "U2706": 3149,
  "U2437": 3150,
  "U5980": 3151,
  "U9484": 3152,
  "U4799": 3153,
  "U5664": 3154,
  "U9052": 3155,
  "U7817": 3156,
  "U832": 3157,
  "U5170": 3158,
  "U8613": 3159,
  "U2419": 3160,
  "U639": 3161,
  "U3405": 3162,
  "U1033": 3163,
  "U6392": 3164,
  "U3106": 3165,
  "U3845": 3166,
  "U4496": 3167,
  "U8651": 3168,
  "U658": 3169,
  "U6442": 3170,
  "U1441": 3171,
  "U6154": 3172,
  "U2496": 3173,
  "U5600": 3174,
  "U4080": 3175,
  "U1919": 3176,
  "U1866": 3177,
  "U1996": 3178,
  "U2452": 3179,
  "U8630": 3180,
  "U1449": 3181,
  "U517": 3182,
  "U2943": 3183,
  "U3941": 3184,
  "U474": 3185,
  "U3950": 3186,
  "U9267": 3187,
  "U6997": 3188,
  "U5386": 3189,
  "U4378": 3190,
  "U3454": 3191,
  "U1975": 3192,
  "U3393": 3193,
  "U3496": 3194,
  "U1299": 3195,
  "U5770": 3196,
  "U778": 3197,
  "U3064": 3198,
  "U9320": 3199,
  "U1014": 3200,
  "U6696": 3201,
  "U9017": 3202,
  "U1393": 3203,
  "U8712": 3204,
  "U6734": 3205,
  "U9499": 3206,
  "U5766": 3207,
  "U8774": 3208,
  "U2528": 3209,
  "U7701": 3210,
  "U4565": 3211,
  "U578": 3212,
  "U3735": 3213,
  "U1961": 3214,
  "U3348": 3215,
  "U4195": 3216,
  "U4915": 3217,
  "U9260": 3218,
  "U572": 3219,
  "U564": 3220,
  "U2122": 3221,
  "U6324": 3222,
  "U6518": 3223,
  "U6958": 3224,
  "U5635": 3225,
  "U4207": 3226,
  "U8887": 3227,
  "U2450": 3228,
  "U4233": 3229,
  "U7517": 3230,
  "U2799": 3231,
  "U2805": 3232,
  "U8927": 3233,
  "U889": 3234,
  "U7851": 3235,
  "U5117": 3236,
  "U8912": 3237,
  "U3578": 3238,
  "U5694": 3239,
  "U3853": 3240,
  "U4570": 3241,
  "U5056": 3242,
  "U7544": 3243,
  "U3459": 3244,
  "U7181": 3245,
  "U9541": 3246,
  "U5195": 3247,
  "U7521": 3248,
  "U3512": 3249,
  "U6451": 3250,
  "U7757": 3251,
  "U759": 3252,
  "U4537": 3253,
  "U906": 3254,
  "U1213": 3255,
  "U2160": 3256,
  "U5024": 3257,
  "U892": 3258,
  "U3504": 3259,
  "U3586": 3260,
  "U2300": 3261,
  "U5445": 3262,
  "U4086": 3263,
  "U6723": 3264,
  "U6794": 3265,
  "U9242": 3266,
  "U1372": 3267,
  "U2332": 3268,
  "U5074": 3269,
  "U3012": 3270,
  "U4644": 3271,
  "U5861": 3272,
  "U4205": 3273,
  "U6335": 3274,
  "U2019": 3275,
  "U389": 3276,
  "U4558": 3277,
  "U142": 3278,
  "U3013": 3279,
  "U4161": 3280,
  "U4471": 3281,
  "U215": 3282,
  "U9233": 3283,
  "U975": 3284,
  "U2098": 3285,
  "U2716": 3286,
  "U1968": 3287,
  "U2708": 3288,
  "U4720": 3289,
  "U3260": 3290,
  "U4632": 3291,
  "U186": 3292,
  "U8708": 3293,
  "U3971": 3294,
  "U5285": 3295,
  "U8731": 3296,
  "U2172": 3297,
  "U5076": 3298,
  "U662": 3299,
  "U955": 3300,
  "U4241": 3301,
  "U4601": 3302,
  "U2571": 3303,
  "U1351": 3304,
  "U8553": 3305,
  "U6207": 3306,
  "U9556": 3307,
  "U3143": 3308,
  "U794": 3309,
  "U4138": 3310,
  "U2663": 3311,
  "U9107": 3312,
  "U7316": 3313,
  "U4973": 3314,
  "U597": 3315,
  "U7273": 3316,
  "U1966": 3317,
  "U8636": 3318,
  "U1917": 3319,
  "U6413": 3320,
  "U519": 3321,
  "U3542": 3322,
  "U378": 3323,
  "U585": 3324,
  "U8114": 3325,
  "U2722": 3326,
  "U8292": 3327,
  "U5353": 3328,
  "U6986": 3329,
  "U3374": 3330,
  "U4137": 3331,
  "U2481": 3332,
  "U873": 3333,
  "U112": 3334,
  "U6219": 3335,
  "U3786": 3336,
  "U2999": 3337,
  "U4691": 3338,
  "U5594": 3339,
  "U9152": 3340,
  "U8570": 3341,
  "U9660": 3342,
  "U2680": 3343,
  "U3728": 3344,
  "U2826": 3345,
  "U3889": 3346,
  "U9338": 3347,
  "U8902": 3348,
  "U9300": 3349,
  "U2179": 3350,
  "U3135": 3351,
  "U1121": 3352,
  "U2707": 3353,
  "U1235": 3354,
  "U1530": 3355,
  "U624": 3356,
  "U8086": 3357,
  "U2619": 3358,
  "U8882": 3359,
  "U5166": 3360,
  "U182": 3361,
  "U3616": 3362,
  "U6331": 3363,
  "U916": 3364,
  "U6944": 3365,
  "U2383": 3366,
  "U3447": 3367,
  "U4110": 3368,
  "U4392": 3369,
  "U8641": 3370,
  "U9240": 3371,
  "U5260": 3372,
  "U787": 3373,
  "U8778": 3374,
  "U5021": 3375,
  "U1771": 3376,
  "U4920": 3377,
  "U8990": 3378,
  "U2541": 3379,
  "U5977": 3380,
  "U6681": 3381,
  "U6974": 3382,
  "U9105": 3383,
  "U4591": 3384,
  "U7011": 3385,
  "U1337": 3386,
  "U231": 3387,
  "U445": 3388,
  "U555": 3389,
  "U2636": 3390,
  "U5686": 3391,
  "U4002": 3392,
  "U8307": 3393,
  "U4778": 3394,
  "U1492": 3395,
  "U917": 3396,
  "U8824": 3397,
  "U8404": 3398,
  "U8673": 3399,
  "U2334": 3400,
  "U1181": 3401,
  "U580": 3402,
  "U6601": 3403,
  "U6256": 3404,
  "U6013": 3405,
  "U4146": 3406,
  "U2831": 3407,
  "U5374": 3408,
  "U1059": 3409,
  "U9252": 3410,
  "U8808": 3411,
  "U1368": 3412,
  "U1459": 3413,
  "U2959": 3414,
  "U1105": 3415,
  "U6659": 3416,
  "U3330": 3417,
  "U2175": 3418,
  "U6653": 3419,
  "U6886": 3420,
  "U7445": 3421,
  "U1276": 3422,
  "U2158": 3423,
  "U2759": 3424,
  "U489": 3425,
  "U8115": 3426,
  "U7689": 3427,
  "U1925": 3428,
  "U2053": 3429,
  "U2080": 3430,
  "U8579": 3431,
  "U1358": 3432,
  "U4126": 3433,
  "U5287": 3434,
  "U5376": 3435,
  "U9060": 3436,
  "U1398": 3437,
  "U209": 3438,
  "U8736": 3439,
  "U9341": 3440,
  "U9833": 3441,
  "U6203": 3442,
  "U3989": 3443,
  "U6199": 3444,
  "U105": 3445,
  "U8631": 3446,
  "U5893": 3447,
  "U3702": 3448,
  "U671": 3449,
  "U1387": 3450,
  "U1879": 3451,
  "U4225": 3452,
  "U9551": 3453,
  "U5254": 3454,
  "U8217": 3455,
  "U546": 3456,
  "U9665": 3457,
  "U2314": 3458,
  "U6915": 3459,
  "U8681": 3460,
  "U2880": 3461,
  "U397": 3462,
  "U3796": 3463,
  "U568": 3464,
  "U9197": 3465,
  "U2763": 3466,
  "U2908": 3467,
  "U1413": 3468,
  "U1889": 3469,
  "U3111": 3470,
  "U3336": 3471,
  "U4286": 3472,
  "U6950": 3473,
  "U3991": 3474,
  "U7788": 3475,
  "U5775": 3476,
  "U8930": 3477,
  "U1119": 3478,
  "U1271": 3479,
  "U4791": 3480,
  "U6161": 3481,
  "U4645": 3482,
  "U9285": 3483,
  "U4907": 3484,
  "U7608": 3485,
  "U934": 3486,
  "U9444": 3487,
  "U3311": 3488,
  "U6080": 3489,
  "U5696": 3490,
  "U6022": 3491,
  "U8620": 3492,
  "U2165": 3493,
  "U569": 3494,
  "U7423": 3495,
  "U3025": 3496,
  "U9145": 3497,
  "U9343": 3498,
  "U1421": 3499,
  "U6872": 3500,
  "U3818": 3501,
  "U8266": 3502,
  "U3887": 3503,
  "U4395": 3504,
  "U3007": 3505,
  "U7534": 3506,
  "U2083": 3507,
  "U3574": 3508,
  "U2966": 3509,
  "U5327": 3510,
  "U3215": 3511,
  "U7395": 3512,
  "U2224": 3513,
  "U2445": 3514,
  "U4747": 3515,
  "U492": 3516,
  "U5935": 3517,
  "U6477": 3518,
  "U6793": 3519,
  "U6995": 3520,
  "U7765": 3521,
  "U3964": 3522,
  "U1240": 3523,
  "U755": 3524,
  "U3168": 3525,
  "U4281": 3526,
  "U4090": 3527,
  "U8082": 3528,
  "U4839": 3529,
  "U6204": 3530,
  "U532": 3531,
  "U3428": 3532,
  "U511": 3533,
  "U683": 3534,
  "U8565": 3535,
  "U5355": 3536,
  "U5922": 3537,
  "U5723": 3538,
  "U612": 3539,
  "U97": 3540,
  "U1184": 3541,
  "U5575": 3542,
  "U4386": 3543,
  "U842": 3544,
  "U4701": 3545,
  "U3774": 3546,
  "U9333": 3547,
  "U800": 3548,
  "U7486": 3549,
  "U1480": 3550,
  "U4981": 3551,
  "U3557": 3552,
  "U5827": 3553,
  "U9184": 3554,
  "U1931": 3555,
  "U4474": 3556,
  "U4452": 3557,
  "U967": 3558,
  "U3108": 3559,
  "U5122": 3560,
  "U2209": 3561,
  "U2291": 3562,
  "U3361": 3563,
  "U4019": 3564,
  "U1948": 3565,
  "U2590": 3566,
  "U9171": 3567,
  "U8860": 3568,
  "U1057": 3569,
  "U5137": 3570,
  "U968": 3571,
  "U336": 3572,
  "U3827": 3573,
  "U5240": 3574,
  "U8880": 3575,
  "U5304": 3576,
  "U7654": 3577,
  "U6478": 3578,
  "U9108": 3579,
  "U9530": 3580,
  "U6501": 3581,
  "U7457": 3582,
  "U9714": 3583,
  "U3700": 3584,
  "U5255": 3585,
  "U862": 3586,
  "U884": 3587,
  "U4964": 3588,
  "U1437": 3589,
  "U295": 3590,
  "U185": 3591,
  "U2510": 3592,
  "U3552": 3593,
  "U9559": 3594,
  "U2227": 3595,
  "U323": 3596,
  "U742": 3597,
  "U8047": 3598,
  "U8905": 3599,
  "U6314": 3600,
  "U3541": 3601,
  "U5906": 3602,
  "U4279": 3603,
  "U502": 3604,
  "U4203": 3605,
  "U9595": 3606,
  "U1433": 3607,
  "U1521": 3608,
  "U2484": 3609,
  "U5483": 3610,
  "U9584": 3611,
  "U1095": 3612,
  "U4442": 3613,
  "U3478": 3614,
  "U1143": 3615,
  "U4519": 3616,
  "U3872": 3617,
  "U6807": 3618,
  "U6138": 3619,
  "U690": 3620,
  "U7019": 3621,
  "U6810": 3622,
  "U9881": 3623,
  "U392": 3624,
  "U3680": 3625,
  "U5001": 3626,
  "U1206": 3627,
  "U2385": 3628,
  "U2433": 3629,
  "U5551": 3630,
  "U127": 3631,
  "U5830": 3632,
  "U8842": 3633,
  "U8306": 3634,
  "U9637": 3635,
  "U7695": 3636,
  "U7188": 3637,
  "U1381": 3638,
  "U4113": 3639,
  "U1320": 3640,
  "U4125": 3641,
  "U2129": 3642,
  "U6562": 3643,
  "U7207": 3644,
  "U1857": 3645,
  "U899": 3646,
  "U2490": 3647,
  "U5371": 3648,
  "U371": 3649,
  "U8568": 3650,
  "U9047": 3651,
  "U6145": 3652,
  "U3799": 3653,
  "U4870": 3654,
  "U2430": 3655,
  "U5031": 3656,
  "U4956": 3657,
  "U3403": 3658,
  "U821": 3659,
  "U579": 3660,
  "U440": 3661,
  "U1023": 3662,
  "U337": 3663,
  "U3956": 3664,
  "U3434": 3665,
  "U9222": 3666,
  "U1865": 3667,
  "U7411": 3668,
  "U4838": 3669,
  "U6340": 3670,
  "U7044": 3671,
  "U5882": 3672,
  "U8837": 3673,
  "U3659": 3674,
  "U4657": 3675,
  "U8865": 3676,
  "U5381": 3677,
  "U6615": 3678,
  "U5343": 3679,
  "U4078": 3680,
  "U4494": 3681,
  "U5940": 3682,
  "U5743": 3683,
  "U2896": 3684,
  "U7133": 3685,
  "U170": 3686,
  "U3985": 3687,
  "U5032": 3688,
  "U736": 3689,
  "U3587": 3690,
  "U8931": 3691,
  "U273": 3692,
  "U8453": 3693,
  "U2733": 3694,
  "U8844": 3695,
  "U8272": 3696,
  "U7616": 3697,
  "U6976": 3698,
  "U3649": 3699,
  "U4978": 3700,
  "U4119": 3701,
  "U414": 3702,
  "U5542": 3703,
  "U5889": 3704,
  "U5921": 3705,
  "U4605": 3706,
  "U5948": 3707,
  "U398": 3708,
  "U8642": 3709,
  "U3979": 3710,
  "U1267": 3711,
  "U2249": 3712,
  "U5925": 3713,
  "U2607": 3714,
  "U3337": 3715,
  "U5141": 3716,
  "U600": 3717,
  "U2868": 3718,
  "U5809": 3719,
  "U4563": 3720,
  "U6062": 3721,
  "U9365": 3722,
  "U2317": 3723,
  "U369": 3724,
  "U8090": 3725,
  "U8847": 3726,
  "U4551": 3727,
  "U1043": 3728,
  "U3182": 3729,
  "U4520": 3730,
  "U3655": 3731,
  "U6612": 3732,
  "U5325": 3733,
  "U722": 3734,
  "U3372": 3735,
  "U3429": 3736,
  "U4600": 3737,
  "U2051": 3738,
  "U3333": 3739,
  "U887": 3740,
  "U5969": 3741,
  "U4341": 3742,
  "U8889": 3743,
  "U8890": 3744,
  "U9291": 3745,
  "U177": 3746,
  "U7087": 3747,
  "U644": 3748,
  "U384": 3749,
  "U311": 3750,
  "U4979": 3751,
  "U9302": 3752,
  "U1063": 3753,
  "U118": 3754,
  "U4097": 3755,
  "U5815": 3756,
  "U1953": 3757,
  "U8448": 3758,
  "U8833": 3759,
  "U8897": 3760,
  "U8004": 3761,
  "U1510": 3762,
  "U3383": 3763,
  "U9474": 3764,
  "U5217": 3765,
  "U3815": 3766,
  "U2092": 3767,
  "U2871": 3768,
  "U1743": 3769,
  "U9355": 3770,
  "U4784": 3771,
  "U677": 3772,
  "U99": 3773,
  "U2697": 3774,
  "U5475": 3775,
  "U9139": 3776,
  "U2035": 3777,
  "U4022": 3778,
  "U3484": 3779,
  "U6930": 3780,
  "U775": 3781,
  "U7594": 3782,
  "U1183": 3783,
  "U6998": 3784,
  "U1471": 3785,
  "U4954": 3786,
  "U328": 3787,
  "U7504": 3788,
  "U936": 3789,
  "U9468": 3790,
  "U9638": 3791,
  "U3369": 3792,
  "U334": 3793,
  "U6628": 3794,
  "U1285": 3795,
  "U9057": 3796,
  "U4843": 3797,
  "U2900": 3798,
  "U363": 3799,
  "U4098": 3800,
  "U2458": 3801,
  "U8917": 3802,
  "U2423": 3803,
  "U2647": 3804,
  "U8333": 3805,
  "U8747": 3806,
  "U863": 3807,
  "U2410": 3808,
  "U1391": 3809,
  "U3100": 3810,
  "U6277": 3811,
  "U6380": 3812,
  "U8438": 3813,
  "U1127": 3814,
  "U2155": 3815,
  "U9380": 3816,
  "U7399": 3817,
  "U8309": 3818,
  "U3654": 3819,
  "U6616": 3820,
  "U8400": 3821,
  "U3814": 3822,
  "U106": 3823,
  "U3378": 3824,
  "U657": 3825,
  "U2998": 3826,
  "U879": 3827,
  "U8634": 3828,
  "U910": 3829,
  "U4796": 3830,
  "U6820": 3831,
  "U1386": 3832,
  "U5432": 3833,
  "U7629": 3834,
  "U4042": 3835,
  "U1185": 3836,
  "U2616": 3837,
  "U851": 3838,
  "U4532": 3839,
  "U7640": 3840,
  "U766": 3841,
  "U2480": 3842,
  "U7879": 3843,
  "U4079": 3844,
  "U8883": 3845,
  "U9548": 3846,
  "U9012": 3847,
  "U6607": 3848,
  "U8765": 3849,
  "U7073": 3850,
  "U4604": 3851,
  "U550": 3852,
  "U1442": 3853,
  "U1418": 3854,
  "U2190": 3855,
  "U3174": 3856,
  "U8996": 3857,
  "U10560": 3858,
  "U3701": 3859,
  "U448": 3860,
  "U5098": 3861,
  "U3191": 3862,
  "U6858": 3863,
  "U7474": 3864,
  "U338": 3865,
  "U8906": 3866,
  "U8141": 3867,
  "U7391": 3868,
  "U3063": 3869,
  "U3505": 3870,
  "U8961": 3871,
  "U1691": 3872,
  "U8595": 3873,
  "U2111": 3874,
  "U3364": 3875,
  "U216": 3876,
  "U5478": 3877,
  "U533": 3878,
  "U9620": 3879,
  "U3975": 3880,
  "U3473": 3881,
  "U5225": 3882,
  "U947": 3883,
  "U376": 3884,
  "U126": 3885,
  "U6126": 3886,
  "U252": 3887,
  "U4229": 3888,
  "U3968": 3889,
  "U1107": 3890,
  "U4373": 3891,
  "U2601": 3892,
  "U382": 3893,
  "U1080": 3894,
  "U1168": 3895,
  "U7854": 3896,
  "U2547": 3897,
  "U2838": 3898,
  "U5494": 3899,
  "U664": 3900,
  "U4711": 3901,
  "U5933": 3902,
  "U373": 3903,
  "U589": 3904,
  "U8123": 3905,
  "U3515": 3906,
  "U4376": 3907,
  "U2921": 3908,
  "U7277": 3909,
  "U5404": 3910,
  "U5487": 3911,
  "U1448": 3912,
  "U1998": 3913,
  "U1444": 3914,
  "U2022": 3915,
  "U8892": 3916,
  "U7586": 3917,
  "U7401": 3918,
  "U7436": 3919,
  "U8105": 3920,
  "U6798": 3921,
  "U3934": 3922,
  "U5848": 3923,
  "U7800": 3924,
  "U2917": 3925,
  "U8369": 3926,
  "U9410": 3927,
  "U1279": 3928,
  "U3144": 3929,
  "U5663": 3930,
  "U7442": 3931,
  "U5057": 3932,
  "U5673": 3933,
  "U8975": 3934,
  "U1032": 3935,
  "U1182": 3936,
  "U3568": 3937,
  "U2026": 3938,
  "U3662": 3939,
  "U8962": 3940,
  "U4489": 3941,
  "U6231": 3942,
  "U1457": 3943,
  "U9008": 3944,
  "U4669": 3945,
  "U1108": 3946,
  "U143": 3947,
  "U5609": 3948,
  "U8963": 3949,
  "U9631": 3950,
  "U8739": 3951,
  "U1140": 3952,
  "U4650": 3953,
  "U6763": 3954,
  "U983": 3955,
  "U139": 3956,
  "U3636": 3957,
  "U5448": 3958,
  "U1932": 3959,
  "U2110": 3960,
  "U1270": 3961,
  "U3151": 3962,
  "U4479": 3963,
  "U480": 3964,
  "U4454": 3965,
  "U2814": 3966,
  "U498": 3967,
  "U2779": 3968,
  "U5309": 3969,
  "U8528": 3970,
  "U8354": 3971,
  "U3089": 3972,
  "U6949": 3973,
  "U1440": 3974,
  "U1166": 3975,
  "U2130": 3976,
  "U8760": 3977,
  "U8792": 3978,
  "U5620": 3979,
  "U3520": 3980,
  "U1677": 3981,
  "U4947": 3982,
  "U1315": 3983,
  "U1796": 3984,
  "U2882": 3985,
  "U6427": 3986,
  "U8589": 3987,
  "U979": 3988,
  "U3583": 3989,
  "U9016": 3990,
  "U9274": 3991,
  "U6871": 3992,
  "U8652": 3993,
  "U3413": 3994,
  "U5120": 3995,
  "U8599": 3996,
  "U7097": 3997,
  "U9025": 3998,
  "U270": 3999,
  "U2734": 4000,
  "U4726": 4001,
  "U8265": 4002,
  "U3997": 4003,
  "U6171": 4004,
  "U2709": 4005,
  "U923": 4006,
  "U6911": 4007,
  "U38": 4008,
  "U6191": 4009,
  "U8894": 4010,
  "U4945": 4011,
  "U2774": 4012,
  "U9330": 4013,
  "U5435": 4014,
  "U9458": 4015,
  "U5258": 4016,
  "U5903": 4017,
  "U1653": 4018,
  "U5097": 4019,
  "U7543": 4020,
  "U4031": 4021,
  "U9329": 4022,
  "U8198": 4023,
  "U8881": 4024,
  "U1084": 4025,
  "U2427": 4026,
  "U5532": 4027,
  "U6160": 4028,
  "U6320": 4029,
  "U3302": 4030,
  "U9397": 4031,
  "U2285": 4032,
  "U479": 4033,
  "U5983": 4034,
  "U2764": 4035,
  "U425": 4036,
  "U3722": 4037,
  "U4930": 4038,
  "U7430": 4039,
  "U1751": 4040,
  "U6440": 4041,
  "U5968": 4042,
  "U606": 4043,
  "U6710": 4044,
  "U4825": 4045,
  "U6336": 4046,
  "U2258": 4047,
  "U7680": 4048,
  "U9041": 4049,
  "U2793": 4050,
  "U8814": 4051,
  "U9392": 4052,
  "U1031": 4053,
  "U5789": 4054,
  "U3149": 4055,
  "U826": 4056,
  "U9129": 4057,
  "U2596": 4058,
  "U3004": 4059,
  "U507": 4060,
  "U4659": 4061,
  "U2393": 4062,
  "U2869": 4063,
  "U3904": 4064,
  "U5190": 4065,
  "U7398": 4066,
  "U3859": 4067,
  "U7773": 4068,
  "U6719": 4069,
  "U3660": 4070,
  "U1341": 4071,
  "U2969": 4072,
  "U3173": 4073,
  "U9324": 4074,
  "U2925": 4075,
  "U3718": 4076,
  "U6546": 4077,
  "U1173": 4078,
  "U647": 4079,
  "U8073": 4080,
  "U7643": 4081,
  "U1415": 4082,
  "U5087": 4083,
  "U3331": 4084,
  "U8875": 4085,
  "U1313": 4086,
  "U1453": 4087,
  "U5026": 4088,
  "U2079": 4089,
  "U3467": 4090,
  "U3476": 4091,
  "U4933": 4092,
  "U1314": 4093,
  "U4986": 4094,
  "U9422": 4095,
  "U6129": 4096,
  "U1091": 4097,
  "U4157": 4098,
  "U3792": 4099,
  "U2586": 4100,
  "U3488": 4101,
  "U3647": 4102,
  "U6177": 4103,
  "U1242": 4104,
  "U2565": 4105,
  "U361": 4106,
  "U3237": 4107,
  "U4075": 4108,
  "U4854": 4109,
  "U7015": 4110,
  "U1357": 4111,
  "U2017": 4112,
  "U575": 4113,
  "U2548": 4114,
  "U6973": 4115,
  "U3050": 4116,
  "U4407": 4117,
  "U900": 4118,
  "U3368": 4119,
  "U3159": 4120,
  "U3248": 4121,
  "U2071": 4122,
  "U2236": 4123,
  "U465": 4124,
  "U4569": 4125,
  "U5943": 4126,
  "U675": 4127,
  "U954": 4128,
  "U682": 4129,
  "U6633": 4130,
  "U4012": 4131,
  "U6675": 4132,
  "U3296": 4133,
  "U4006": 4134,
  "U896": 4135,
  "U6792": 4136,
  "U464": 4137,
  "U1294": 4138,
  "U5666": 4139,
  "U918": 4140,
  "U9058": 4141,
  "U9460": 4142,
  "U628": 4143,
  "U3251": 4144,
  "U7867": 4145,
  "U6269": 4146,
  "U1443": 4147,
  "U527": 4148,
  "U7563": 4149,
  "U2140": 4150,
  "U8638": 4151,
  "U1144": 4152,
  "U1161": 4153,
  "U2321": 4154,
  "U3783": 4155,
  "U4175": 4156,
  "U5103": 4157,
  "U7128": 4158,
  "U6844": 4159,
  "U3990": 4160,
  "U2698": 4161,
  "U845": 4162,
  "U9486": 4163,
  "U1326": 4164,
  "U2348": 4165,
  "U249": 4166,
  "U5828": 4167,
  "U4663": 4168,
  "U3865": 4169,
  "U4176": 4170,
  "U3157": 4171,
  "U3177": 4172,
  "U611": 4173,
  "U1074": 4174,
  "U421": 4175,
  "U6808": 4176,
  "U762": 4177,
  "U1016": 4178,
  "U3477": 4179,
  "U3915": 4180,
  "U4988": 4181,
  "U1454": 4182,
  "U948": 4183,
  "U6700": 4184,
  "U1081": 4185,
  "U3550": 4186,
  "U1223": 4187,
  "U3071": 4188,
  "U6025": 4189,
  "U6530": 4190,
  "U837": 4191,
  "U2600": 4192,
  "U355": 4193,
  "U4512": 4194,
  "U3176": 4195,
  "U2632": 4196,
  "U1289": 4197,
  "U3077": 4198,
  "U7485": 4199,
  "U7146": 4200,
  "U765": 4201,
  "U6113": 4202,
  "U8679": 4203,
  "U2038": 4204,
  "U3770": 4205,
  "U8244": 4206,
  "U2864": 4207,
  "U5582": 4208,
  "U518": 4209,
  "U8581": 4210,
  "U4107": 4211,
  "U509": 4212,
  "U8936": 4213,
  "U5314": 4214,
  "U911": 4215,
  "U2216": 4216,
  "U7759": 4217,
  "U4910": 4218,
  "U3768": 4219,
  "U5004": 4220,
  "U2387": 4221,
  "U7434": 4222,
  "U2978": 4223,
  "U6109": 4224,
  "U4938": 4225,
  "U7529": 4226,
  "U868": 4227,
  "U3194": 4228,
  "U9835": 4229,
  "U3652": 4230,
  "U816": 4231,
  "U756": 4232,
  "U450": 4233,
  "U5996": 4234,
  "U5269": 4235,
  "U4160": 4236,
  "U4680": 4237,
  "U3420": 4238,
  "U4265": 4239,
  "U4349": 4240,
  "U7881": 4241,
  "U1189": 4242,
  "U4749": 4243,
  "U485": 4244,
  "U5208": 4245,
  "U4748": 4246,
  "U5967": 4247,
  "U5618": 4248,
  "U3155": 4249,
  "U4877": 4250,
  "U277": 4251,
  "U6091": 4252,
  "U3530": 4253,
  "U7159": 4254,
  "U3257": 4255,
  "U1038": 4256,
  "U3214": 4257,
  "U8515": 4258,
  "U2221": 4259,
  "U4283": 4260,
  "U8393": 4261,
  "U3441": 4262,
  "U9399": 4263,
  "U5671": 4264,
  "U829": 4265,
  "U7954": 4266,
  "U152": 4267,
  "U627": 4268,
  "U1429": 4269,
  "U3675": 4270,
  "U3779": 4271,
  "U1719": 4272,
  "U1072": 4273,
  "U920": 4274,
  "U9357": 4275,
  "U2954": 4276,
  "U2031": 4277,
  "U9205": 4278,
  "U5395": 4279,
  "U6741": 4280,
  "U5557": 4281,
  "U5716": 4282,
  "U782": 4283,
  "U1384": 4284,
  "U6397": 4285,
  "U9386": 4286,
  "U204": 4287,
  "U6522": 4288,
  "U3327": 4289,
  "U6248": 4290,
  "U9670": 4291,
  "U4577": 4292,
  "U5661": 4293,
  "U5180": 4294,
  "U9037": 4295,
  "U9570": 4296,
  "U541": 4297,
  "U8855": 4298,
  "U3492": 4299,
  "U5167": 4300,
  "U5909": 4301,
  "U9574": 4302,
  "U9419": 4303,
  "U5946": 4304,
  "U4384": 4305,
  "U1028": 4306,
  "U3564": 4307,
  "U2755": 4308,
  "U6125": 4309,
  "U1531": 4310,
  "U5159": 4311,
  "U3213": 4312,
  "U4326": 4313,
  "U7172": 4314,
  "U166": 4315,
  "U6776": 4316,
  "U8486": 4317,
  "U5350": 4318,
  "U6159": 4319,
  "U8984": 4320,
  "U9437": 4321,
  "U1335": 4322,
  "U2087": 4323,
  "U4857": 4324,
  "U9490": 4325,
  "U5054": 4326,
  "U5856": 4327,
  "U8954": 4328,
  "U5296": 4329,
  "U4866": 4330,
  "U9248": 4331,
  "U3338": 4332,
  "U5738": 4333,
  "U6956": 4334,
  "U1988": 4335,
  "U1147": 4336,
  "U9077": 4337,
  "U5628": 4338,
  "U7180": 4339,
  "U777": 4340,
  "U2115": 4341,
  "U219": 4342,
  "U9038": 4343,
  "U1006": 4344,
  "U3500": 4345,
  "U7996": 4346,
  "U8357": 4347,
  "U501": 4348,
  "U1104": 4349,
  "U508": 4350,
  "U6147": 4351,
  "U6362": 4352,
  "U3289": 4353,
  "U7756": 4354,
  "U5497": 4355,
  "U8908": 4356,
  "U1001": 4357,
  "U5105": 4358,
  "U8317": 4359,
  "U3600": 4360,
  "U8314": 4361,
  "U8245": 4362,
  "U3698": 4363,
  "U9612": 4364,
  "U4461": 4365,
  "U2642": 4366,
  "U5955": 4367,
  "U5646": 4368,
  "U8367": 4369,
  "U5989": 4370,
  "U184": 4371,
  "U3185": 4372,
  "U789": 4373,
  "U2306": 4374,
  "U1245": 4375,
  "U5227": 4376,
  "U8966": 4377,
  "U9421": 4378,
  "U6123": 4379,
  "U8732": 4380,
  "U8922": 4381,
  "U5965": 4382,
  "U1118": 4383,
  "U6321": 4384,
  "U8019": 4385,
  "U2692": 4386,
  "U3254": 4387,
  "U6426": 4388,
  "U3022": 4389,
  "U5433": 4390,
  "U5485": 4391,
  "U6800": 4392,
  "U5985": 4393,
  "U2177": 4394,
  "U4506": 4395,
  "U6180": 4396,
  "U468": 4397,
  "U9445": 4398,
  "U4232": 4399,
  "U5885": 4400,
  "U8646": 4401,
  "U7556": 4402,
  "U2715": 4403,
  "U3228": 4404,
  "U6499": 4405,
  "U2037": 4406,
  "U4259": 4407,
  "U966": 4408,
  "U938": 4409,
  "U5268": 4410,
  "U9471": 4411,
  "U3086": 4412,
  "U5182": 4413,
  "U9770": 4414,
  "U8032": 4415,
  "U7572": 4416,
  "U7463": 4417,
  "U2292": 4418,
  "U3828": 4419,
  "U1729": 4420,
  "U6317": 4421,
  "U9111": 4422,
  "U412": 4423,
  "U8252": 4424,
  "U632": 4425,
  "U5652": 4426,
  "U648": 4427,
  "U3252": 4428,
  "U9753": 4429,
  "U2413": 4430,
  "U9414": 4431,
  "U4823": 4432,
  "U4243": 4433,
  "U6603": 4434,
  "U1436": 4435,
  "U5919": 4436,
  "U9457": 4437,
  "U620": 4438,
  "U2060": 4439,
  "U1188": 4440,
  "U2146": 4441,
  "U2769": 4442,
  "U3343": 4443,
  "U2905": 4444,
  "U7522": 4445,
  "U3117": 4446,
  "U5746": 4447,
  "U5034": 4448,
  "U4334": 4449,
  "U2889": 4450,
  "U4419": 4451,
  "U8669": 4452,
  "U7884": 4453,
  "U8385": 4454,
  "U2372": 4455,
  "U7194": 4456,
  "U426": 4457,
  "U9787": 4458,
  "U4284": 4459,
  "U4867": 4460,
  "U3677": 4461,
  "U5366": 4462,
  "U5591": 4463,
  "U2356": 4464,
  "U5896": 4465,
  "U9567": 4466,
  "U4744": 4467,
  "U5577": 4468,
  "U5481": 4469,
  "U3749": 4470,
  "U3558": 4471,
  "U6455": 4472,
  "U9381": 4473,
  "U5771": 4474,
  "U5826": 4475,
  "U1526": 4476,
  "U6981": 4477,
  "U9074": 4478,
  "U536": 4479,
  "U831": 4480,
  "U3573": 4481,
  "U3169": 4482,
  "U674": 4483,
  "U8131": 4484,
  "U2428": 4485,
  "U5161": 4486,
  "U7888": 4487,
  "U9054": 4488,
  "U4439": 4489,
  "U3703": 4490,
  "U5411": 4491,
  "U3797": 4492,
  "U2928": 4493,
  "U9688": 4494,
  "U2208": 4495,
  "U2181": 4496,
  "U317": 4497,
  "U4928": 4498,
  "U3536": 4499,
  "U3750": 4500,
  "U4892": 4501,
  "U5540": 4502,
  "U5178": 4503,
  "U2135": 4504,
  "U4724": 4505,
  "U56": 4506,
  "U2124": 4507,
  "U7933": 4508,
  "U3011": 4509,
  "U5786": 4510,
  "U6595": 4511,
  "U2420": 4512,
  "U3039": 4513,
  "U3601": 4514,
  "U3737": 4515,
  "U1103": 4516,
  "U408": 4517,
  "U623": 4518,
  "U1434": 4519,
  "U4015": 4520,
  "U1540": 4521,
  "U7080": 4522,
  "U3304": 4523,
  "U4835": 4524,
  "U987": 4525,
  "U3486": 4526,
  "U5567": 4527,
  "U8593": 4528,
  "U7614": 4529,
  "U146": 4530,
  "U8821": 4531,
  "U9125": 4532,
  "U1376": 4533,
  "U9362": 4534,
  "U5521": 4535,
  "U1784": 4536,
  "U2804": 4537,
  "U4354": 4538,
  "U8399": 4539,
  "U9002": 4540,
  "U247": 4541,
  "U5650": 4542,
  "U1265": 4543,
  "U4963": 4544,
  "U3780": 4545,
  "U4492": 4546,
  "U5479": 4547,
  "U1557": 4548,
  "U802": 4549,
  "U1274": 4550,
  "U2916": 4551,
  "U4358": 4552,
  "U2984": 4553,
  "U4293": 4554,
  "U8686": 4555,
  "U3688": 4556,
  "U2075": 4557,
  "U9102": 4558,
  "U1149": 4559,
  "U2030": 4560,
  "U1388": 4561,
  "U3192": 4562,
  "U1191": 4563,
  "U6003": 4564,
  "U1458": 4565,
  "U4050": 4566,
  "U9342": 4567,
  "U8376": 4568,
  "U8537": 4569,
  "U4705": 4570,
  "U9138": 4571,
  "U1070": 4572,
  "U1237": 4573,
  "U1359": 4574,
  "U9065": 4575,
  "U8382": 4576,
  "U4145": 4577,
  "U6703": 4578,
  "U9176": 4579,
  "U9604": 4580,
  "U7145": 4581,
  "U3103": 4582,
  "U4065": 4583,
  "U529": 4584,
  "U6264": 4585,
  "U8788": 4586,
  "U1002": 4587,
  "U5136": 4588,
  "U6352": 4589,
  "U1054": 4590,
  "U4434": 4591,
  "U4792": 4592,
  "U3931": 4593,
  "U1009": 4594,
  "U2326": 4595,
  "U696": 4596,
  "U1814": 4597,
  "U1280": 4598,
  "U3335": 4599,
  "U3984": 4600,
  "U9178": 4601,
  "U3914": 4602,
  "U6457": 4603,
  "U4488": 4604,
  "U9056": 4605,
  "U2279": 4606,
  "U4115": 4607,
  "U4697": 4608,
  "U6854": 4609,
  "U7574": 4610,
  "U9100": 4611,
  "U9387": 4612,
  "U7453": 4613,
  "U552": 4614,
  "U3951": 4615,
  "U8062": 4616,
  "U8416": 4617,
  "U1346": 4618,
  "U6517": 4619,
  "U9649": 4620,
  "U3788": 4621,
  "U1092": 4622,
  "U5912": 4623,
  "U8566": 4624,
  "U4606": 4625,
  "U4220": 4626,
  "U7546": 4627,
  "U3088": 4628,
  "U1011": 4629,
  "U820": 4630,
  "U2934": 4631,
  "U9739": 4632,
  "U8728": 4633,
  "U2524": 4634,
  "U8884": 4635,
  "U1156": 4636,
  "U1157": 4637,
  "U138": 4638,
  "U4554": 4639,
  "U2271": 4640,
  "U6680": 4641,
  "U4511": 4642,
  "U1933": 4643,
  "U2846": 4644,
  "U4465": 4645,
  "U8885": 4646,
  "U9388": 4647,
  "U7432": 4648,
  "U7294": 4649,
  "U1385": 4650,
  "U1220": 4651,
  "U484": 4652,
  "U3493": 4653,
  "U6558": 4654,
  "U1324": 4655,
  "U4886": 4656,
  "U2082": 4657,
  "U4723": 4658,
  "U7468": 4659,
  "U6149": 4660,
  "U7271": 4661,
  "U1332": 4662,
  "U5559": 4663,
  "U4987": 4664,
  "U8843": 4665,
  "U1075": 4666,
  "U9807": 4667,
  "U1269": 4668,
  "U7012": 4669,
  "U6178": 4670,
  "U689": 4671,
  "U672": 4672,
  "U2628": 4673,
  "U8322": 4674,
  "U6117": 4675,
  "U3132": 4676,
  "U4880": 4677,
  "U592": 4678,
  "U3560": 4679,
  "U3061": 4680,
  "U3612": 4681,
  "U5077": 4682,
  "U3244": 4683,
  "U7776": 4684,
  "U3072": 4685,
  "U3469": 4686,
  "U2957": 4687,
  "U1383": 4688,
  "U8415": 4689,
  "U7895": 4690,
  "U7883": 4691,
  "U5132": 4692,
  "U3653": 4693,
  "U3843": 4694,
  "U2854": 4695,
  "U695": 4696,
  "U2352": 4697,
  "U5226": 4698,
  "U5877": 4699,
  "U3933": 4700,
  "U1802": 4701,
  "U2860": 4702,
  "U3465": 4703,
  "U6833": 4704,
  "U2795": 4705,
  "U4453": 4706,
  "U2641": 4707,
  "U2531": 4708,
  "U6270": 4709,
  "U3873": 4710,
  "U3221": 4711,
  "U6842": 4712,
  "U1257": 4713,
  "U7274": 4714,
  "U7731": 4715,
  "U2302": 4716,
  "U6821": 4717,
  "U1287": 4718,
  "U3407": 4719,
  "U2655": 4720,
  "U5042": 4721,
  "U9582": 4722,
  "U3121": 4723,
  "U3451": 4724,
  "U621": 4725,
  "U9412": 4726,
  "U5221": 4727,
  "U1824": 4728,
  "U7562": 4729,
  "U9098": 4730,
  "U8735": 4731,
  "U4249": 4732,
  "U5431": 4733,
  "U3102": 4734,
  "U6669": 4735,
  "U7886": 4736,
  "U853": 4737,
  "U4415": 4738,
  "U1318": 4739,
  "U1427": 4740,
  "U2389": 4741,
  "U331": 4742,
  "U10996": 4743,
  "U6216": 4744,
  "U3943": 4745,
  "U5573": 4746,
  "U1849": 4747,
  "U7839": 4748,
  "U6398": 4749,
  "U5810": 4750,
  "U6663": 4751,
  "U6621": 4752,
  "U1077": 4753,
  "U1853": 4754,
  "U3023": 4755,
  "U4282": 4756,
  "U5279": 4757,
  "U5749": 4758,
  "U3409": 4759,
  "U6747": 4760,
  "U4245": 4761,
  "U7493": 4762,
  "U9529": 4763,
  "U236": 4764,
  "U4367": 4765,
  "U6175": 4766,
  "U8938": 4767,
  "U4242": 4768,
  "U874": 4769,
  "U2386": 4770,
  "U4530": 4771,
  "U5867": 4772,
  "U6988": 4773,
  "U4084": 4774,
  "U2070": 4775,
  "U3351": 4776,
  "U7814": 4777,
  "U5735": 4778,
  "U2054": 4779,
  "U4388": 4780,
  "U692": 4781,
  "U1193": 4782,
  "U9048": 4783,
  "U1200": 4784,
  "U4262": 4785,
  "U1199": 4786,
  "U1613": 4787,
  "U346": 4788,
  "U8964": 4789,
  "U483": 4790,
  "U796": 4791,
  "U4873": 4792,
  "U1792": 4793,
  "U4199": 4794,
  "U1419": 4795,
  "U1681": 4796,
  "U4142": 4797,
  "U7615": 4798,
  "U9609": 4799,
  "U2104": 4800,
  "U940": 4801,
  "U6519": 4802,
  "U7941": 4803,
  "U1707": 4804,
  "U9068": 4805,
  "U9430": 4806,
  "U1420": 4807,
  "U2862": 4808,
  "U6236": 4809,
  "U3918": 4810,
  "U2367": 4811,
  "U1432": 4812,
  "U5688": 4813,
  "U5857": 4814,
  "U8943": 4815,
  "U4048": 4816,
  "U3379": 4817,
  "U5331": 4818,
  "U7722": 4819,
  "U5550": 4820,
  "U9161": 4821,
  "U9416": 4822,
  "U3513": 4823,
  "U2762": 4824,
  "U817": 4825,
  "U2545": 4826,
  "U951": 4827,
  "U687": 4828,
  "U3840": 4829,
  "U7635": 4830,
  "U7677": 4831,
  "U3365": 4832,
  "U8869": 4833,
  "U3016": 4834,
  "U6315": 4835,
  "U6662": 4836,
  "U1990": 4837,
  "U352": 4838,
  "U4525": 4839,
  "U1239": 4840,
  "U2819": 4841,
  "U6996": 4842,
  "U2023": 4843,
  "U6496": 4844,
  "U8551": 4845,
  "U4450": 4846,
  "U1260": 4847,
  "U1277": 4848,
  "U2553": 4849,
  "U5239": 4850,
  "U4322": 4851,
  "U1478": 4852,
  "U8705": 4853,
  "U4846": 4854,
  "U5196": 4855,
  "U2489": 4856,
  "U4736": 4857,
  "U4082": 4858,
  "U688": 4859,
  "U3588": 4860,
  "U7824": 4861,
  "U5272": 4862,
  "U433": 4863,
  "U289": 4864,
  "U3855": 4865,
  "U6322": 4866,
  "U9439": 4867,
  "U1519": 4868,
  "U1524": 4869,
  "U7771": 4870,
  "U8848": 4871,
  "U9345": 4872,
  "U8635": 4873,
  "U4727": 4874,
  "U976": 4875,
  "U8737": 4876,
  "U233": 4877,
  "U6223": 4878,
  "U1165": 4879,
  "U2936": 4880,
  "U9143": 4881,
  "U9286": 4882,
  "U5080": 4883,
  "U8302": 4884,
  "U3614": 4885,
  "U2505": 4886,
  "U3638": 4887,
  "U6761": 4888,
  "U3626": 4889,
  "U8950": 4890,
  "U1259": 4891,
  "U4550": 4892,
  "U566": 4893,
  "U5873": 4894,
  "U3097": 4895,
  "U505": 4896,
  "U6815": 4897,
  "U1264": 4898,
  "U7646": 4899,
  "U7550": 4900,
  "U2374": 4901,
  "U3217": 4902,
  "U8473": 4903,
  "U1136": 4904,
  "U5204": 4905,
  "U2260": 4906,
  "U7283": 4907,
  "U8846": 4908,
  "U9491": 4909,
  "U1071": 4910,
  "U7561": 4911,
  "U4926": 4912,
  "U8567": 4913,
  "U2648": 4914,
  "U7961": 4915,
  "U1363": 4916,
  "U6899": 4917,
  "U1334": 4918,
  "U9106": 4919,
  "U6832": 4920,
  "U5757": 4921,
  "U792": 4922,
  "U1894": 4923,
  "U3087": 4924,
  "U7143": 4925,
  "U11108": 4926,
  "U383": 4927,
  "U8003": 4928,
  "U1929": 4929,
  "U7383": 4930,
  "U7302": 4931,
  "U9676": 4932,
  "U3595": 4933,
  "U4051": 4934,
  "U1079": 4935,
  "U1302": 4936,
  "U3329": 4937,
  "U3188": 4938,
  "U5052": 4939,
  "U9836": 4940,
  "U4043": 4941,
  "U4342": 4942,
  "U8683": 4943,
  "U3095": 4944,
  "U7245": 4945,
  "U8649": 4946,
  "U3767": 4947,
  "U9743": 4948,
  "U2398": 4949,
  "U4435": 4950,
  "U9096": 4951,
  "U4154": 4952,
  "U3826": 4953,
  "U4517": 4954,
  "U1907": 4955,
  "U1290": 4956,
  "U1256": 4957,
  "U1297": 4958,
  "U3754": 4959,
  "U7024": 4960,
  "U455": 4961,
  "U5959": 4962,
  "U287": 4963,
  "U7598": 4964,
  "U4571": 4965,
  "U2005": 4966,
  "U3549": 4967,
  "U5536": 4968,
  "U1515": 4969,
  "U6058": 4970,
  "U6366": 4971,
  "U1725": 4972,
  "U1036": 4973,
  "U4793": 4974,
  "U5078": 4975,
  "U9727": 4976,
  "U5984": 4977,
  "U6017": 4978,
  "U6927": 4979,
  "U8680": 4980,
  "U701": 4981,
  "U3448": 4982,
  "U3667": 4983,
  "U1435": 4984,
  "U3283": 4985,
  "U3287": 4986,
  "U4746": 4987,
  "U6929": 4988,
  "U8674": 4989,
  "U557": 4990,
  "U6509": 4991,
  "U4179": 4992,
  "U380": 4993,
  "U7469": 4994,
  "U8935": 4995,
  "U2504": 4996,
  "U6806": 4997,
  "U5231": 4998,
  "U84": 4999,
  "U997": 5000,
  "U9408": 5001,
  "U5672": 5002,
  "U9072": 5003,
  "U9097": 5004,
  "U2523": 5005,
  "U85": 5006,
  "U3983": 5007,
  "U4270": 5008,
  "U989": 5009,
  "U60": 5010,
  "U5197": 5011,
  "U9213": 5012,
  "U5168": 5013,
  "U3787": 5014,
  "U7393": 5015,
  "U4975": 5016,
  "U1584": 5017,
  "U4547": 5018,
  "U2570": 5019,
  "U3580": 5020,
  "U4187": 5021,
  "U6461": 5022,
  "U1142": 5023,
  "U2406": 5024,
  "U1483": 5025,
  "U3742": 5026,
  "U4304": 5027,
  "U5883": 5028,
  "U7864": 5029,
  "U7822": 5030,
  "U1135": 5031,
  "U5838": 5032,
  "U2336": 5033,
  "U2335": 5034,
  "U2077": 5035,
  "U3517": 5036,
  "U2444": 5037,
  "U3685": 5038,
  "U5544": 5039,
  "U2085": 5040,
  "U2742": 5041,
  "U4768": 5042,
  "U4932": 5043,
  "U4127": 5044,
  "U8629": 5045,
  "U1488": 5046,
  "U972": 5047,
  "U2084": 5048,
  "U3200": 5049,
  "U7661": 5050,
  "U1234": 5051,
  "U1007": 5052,
  "U7802": 5053,
  "U5994": 5054,
  "U1224": 5055,
  "U2736": 5056,
  "U5549": 5057,
  "U1296": 5058,
  "U224": 5059,
  "U2380": 5060,
  "U4542": 5061,
  "U5936": 5062,
  "U3041": 5063,
  "U1114": 5064,
  "U3922": 5065,
  "U5589": 5066,
  "U4041": 5067,
  "U5013": 5068,
  "U1873": 5069,
  "U4105": 5070,
  "U990": 5071,
  "U5006": 5072,
  "U9572": 5073,
  "U372": 5074,
  "U6851": 5075,
  "U8617": 5076,
  "U2388": 5077,
  "U8763": 5078,
  "U1410": 5079,
  "U4574": 5080,
  "U6369": 5081,
  "U1288": 5082,
  "U7699": 5083,
  "U6185": 5084,
  "U1037": 5085,
  "U3959": 5086,
  "U7651": 5087,
  "U1060": 5088,
  "U9645": 5089,
  "U3641": 5090,
  "U3741": 5091,
  "U1047": 5092,
  "U1303": 5093,
  "U2112": 5094,
  "U1125": 5095,
  "U3623": 5096,
  "U4025": 5097,
  "U2603": 5098,
  "U9084": 5099,
  "U4822": 5100,
  "U3197": 5101,
  "U8643": 5102,
  "U1261": 5103,
  "U4757": 5104,
  "U374": 5105,
  "U6770": 5106,
  "U6769": 5107,
  "U4861": 5108,
  "U3186": 5109,
  "U3153": 5110,
  "U6233": 5111,
  "U6367": 5112,
  "U7684": 5113,
  "U6610": 5114,
  "U8600": 5115,
  "U5760": 5116,
  "U7424": 5117,
  "U982": 5118,
  "U970": 5119,
  "U1044": 5120,
  "U8592": 5121,
  "U6004": 5122,
  "U462": 5123,
  "U8654": 5124,
  "U8714": 5125,
  "U4805": 5126,
  "U6275": 5127,
  "U8440": 5128,
  "U2240": 5129,
  "U7610": 5130,
  "U1152": 5131,
  "U3945": 5132,
  "U5096": 5133,
  "U5617": 5134,
  "U4580": 5135,
  "U4728": 5136,
  "U9337": 5137,
  "U1051": 5138,
  "U1414": 5139,
  "U1371": 5140,
  "U3725": 5141,
  "U6702": 5142,
  "U1636": 5143,
  "U3468": 5144,
  "U7836": 5145,
  "U8845": 5146,
  "U3328": 5147,
  "U2521": 5148,
  "U4210": 5149,
  "U8746": 5150,
  "U1093": 5151,
  "U2215": 5152,
  "U3862": 5153,
  "U7620": 5154,
  "U4631": 5155,
  "U7984": 5156,
  "U4737": 5157,
  "U4811": 5158,
  "U9535": 5159,
  "U5046": 5160,
  "U9158": 5161,
  "U2117": 5162,
  "U9790": 5163,
  "U381": 5164,
  "U9682": 5165,
  "U2316": 5166,
  "U137": 5167,
  "U8573": 5168,
  "U3070": 5169,
  "U4028": 5170,
  "U2246": 5171,
  "U2730": 5172,
  "U8287": 5173,
  "U5305": 5174,
  "U3126": 5175,
  "U4280": 5176,
  "U3905": 5177,
  "U4353": 5178,
  "U2199": 5179,
  "U5420": 5180,
  "U6045": 5181,
  "U6115": 5182,
  "U6128": 5183,
  "U472": 5184,
  "U1995": 5185,
  "U2786": 5186,
  "U4100": 5187,
  "U4528": 5188,
  "U4108": 5189,
  "U6446": 5190,
  "U1247": 5191,
  "U586": 5192,
  "U9734": 5193,
  "U7317": 5194,
  "U9581": 5195,
  "U7048": 5196,
  "U4185": 5197,
  "U4533": 5198,
  "U5816": 5199,
  "U771": 5200,
  "U1048": 5201,
  "U1146": 5202,
  "U8900": 5203,
  "U7422": 5204,
  "U8005": 5205,
  "U2136": 5206,
  "U9169": 5207,
  "U6684": 5208,
  "U5971": 5209,
  "U251": 5210,
  "U6740": 5211,
  "U7540": 5212,
  "U4421": 5213,
  "U2756": 5214,
  "U5488": 5215,
  "U7514": 5216,
  "U1425": 5217,
  "U1606": 5218,
  "U2323": 5219,
  "U4055": 5220,
  "U5817": 5221,
  "U5931": 5222,
  "U9504": 5223,
  "U6756": 5224,
  "U7785": 5225,
  "U5781": 5226,
  "U9000": 5227,
  "U9780": 5228,
  "U1329": 5229,
  "U2397": 5230,
  "U8665": 5231,
  "U7462": 5232,
  "U3449": 5233,
  "U3516": 5234,
  "U3673": 5235,
  "U7837": 5236,
  "U1967": 5237,
  "U4476": 5238,
  "U5162": 5239,
  "U7737": 5240,
  "U1053": 5241,
  "U4576": 5242,
  "U4965": 5243,
  "U7359": 5244,
  "U5278": 5245,
  "U3811": 5246,
  "U2486": 5247,
  "U5384": 5248,
  "U2511": 5249,
  "U6735": 5250,
  "U2465": 5251,
  "U1397": 5252,
  "U1400": 5253,
  "U5289": 5254,
  "U4906": 5255,
  "U8696": 5256,
  "U2972": 5257,
  "U3835": 5258,
  "U1027": 5259,
  "U4802": 5260,
  "U8134": 5261,
  "U956": 5262,
  "U2264": 5263,
  "U625": 5264,
  "U3976": 5265,
  "U8660": 5266,
  "U5165": 5267,
  "U7621": 5268,
  "U2418": 5269,
  "U9195": 5270,
  "U407": 5271,
  "U6266": 5272,
  "U7515": 5273,
  "U5630": 5274,
  "U500": 5275,
  "U776": 5276,
  "U4437": 5277,
  "U559": 5278,
  "U57": 5279,
  "U120": 5280,
  "U1836": 5281,
  "U5900": 5282,
  "U5152": 5283,
  "U3105": 5284,
  "U5095": 5285,
  "U844": 5286,
  "U4487": 5287,
  "U570": 5288,
  "U1073": 5289,
  "U8531": 5290,
  "U9537": 5291,
  "U3474": 5292,
  "U353": 5293,
  "U7700": 5294,
  "U891": 5295,
  "U2797": 5296,
  "U5036": 5297,
  "U449": 5298,
  "U5019": 5299,
  "U9798": 5300,
  "U4143": 5301,
  "U6919": 5302,
  "U4344": 5303,
  "U3635": 5304,
  "U905": 5305,
  "U1937": 5306,
  "U4038": 5307,
  "U5151": 5308,
  "U4074": 5309,
  "U8998": 5310,
  "U241": 5311,
  "U2681": 5312,
  "U3175": 5313,
  "U8580": 5314,
  "U8867": 5315,
  "U9336": 5316,
  "U2218": 5317,
  "U9592": 5318,
  "U5410": 5319,
  "U2890": 5320,
  "U8165": 5321,
  "U548": 5322,
  "U5068": 5323,
  "U2381": 5324,
  "U6691": 5325,
  "U8505": 5326,
  "U4011": 5327,
  "U6762": 5328,
  "U1772": 5329,
  "U2090": 5330,
  "U3925": 5331,
  "U1430": 5332,
  "U3107": 5333,
  "U3206": 5334,
  "U806": 5335,
  "U3830": 5336,
  "U9635": 5337,
  "U9785": 5338,
  "U1587": 5339,
  "U6334": 5340,
  "U2443": 5341,
  "U9409": 5342,
  "U8460": 5343,
  "U2810": 5344,
  "U7291": 5345,
  "U2058": 5346,
  "U2217": 5347,
  "U8672": 5348,
  "U791": 5349,
  "U3738": 5350,
  "U7043": 5351,
  "U9590": 5352,
  "U2950": 5353,
  "U9151": 5354,
  "U2911": 5355,
  "U779": 5356,
  "U2558": 5357,
  "U8834": 5358,
  "U6767": 5359,
  "U6788": 5360,
  "U9272": 5361,
  "U5373": 5362,
  "U3358": 5363,
  "U4859": 5364,
  "U4848": 5365,
  "U9449": 5366,
  "U1409": 5367,
  "U4058": 5368,
  "U1355": 5369,
  "U2617": 5370,
  "U2056": 5371,
  "U2307": 5372,
  "U9733": 5373,
  "U3524": 5374,
  "U4552": 5375,
  "U2938": 5376,
  "U3765": 5377,
  "U2700": 5378,
  "U4921": 5379,
  "U2231": 5380,
  "U4678": 5381,
  "U994": 5382,
  "U6361": 5383,
  "U9480": 5384,
  "U10077": 5385,
  "U6309": 5386,
  "U3637": 5387,
  "U4989": 5388,
  "U6912": 5389,
  "U5016": 5390,
  "U9531": 5391,
  "U6590": 5392,
  "U3078": 5393,
  "U9132": 5394,
  "U7691": 5395,
  "U7191": 5396,
  "U5715": 5397,
  "U1258": 5398,
  "U4624": 5399,
  "U823": 5400,
  "U3731": 5401,
  "U6580": 5402,
  "U1015": 5403,
  "U3875": 5404,
  "U8171": 5405,
  "U8856": 5406,
  "U1395": 5407,
  "U9544": 5408,
  "U2156": 5409,
  "U2478": 5410,
  "U3424": 5411,
  "U7237": 5412,
  "U5981": 5413,
  "U4869": 5414,
  "U7729": 5415,
  "U439": 5416,
  "U10186": 5417,
  "U1170": 5418,
  "U2280": 5419,
  "U1726": 5420,
  "U427": 5421,
  "U8947": 5422,
  "U3982": 5423,
  "U8289": 5424,
  "U1949": 5425,
  "U4729": 5426,
  "U5295": 5427,
  "U1466": 5428,
  "U91": 5429,
  "U1484": 5430,
  "U1495": 5431,
  "U1497": 5432,
  "U1498": 5433,
  "U1501": 5434,
  "U1503": 5435,
  "U1504": 5436,
  "U1505": 5437,
  "U1511": 5438,
  "U7998": 5439,
  "U807": 5440,
  "U1517": 5441,
  "U3778": 5442,
  "U5642": 5443,
  "U1522": 5444,
  "U1532": 5445,
  "U6660": 5446,
  "U1590": 5447,
  "U3490": 5448,
  "U7593": 5449,
  "U2639": 5450,
  "U3529": 5451,
  "U8102": 5452,
  "U5280": 5453,
  "U8218": 5454,
  "U1041": 5455,
  "U7363": 5456,
  "U6011": 5457,
  "U9188": 5458,
  "U5778": 5459,
  "U9173": 5460,
  "U3397": 5461,
  "U5533": 5462,
  "U2960": 5463,
  "U9686": 5464,
  "U1675": 5465,
  "U3268": 5466,
  "U1546": 5467,
  "U3607": 5468,
  "U1679": 5469,
  "U7779": 5470,
  "U456": 5471,
  "U6252": 5472,
  "U7605": 5473,
  "U1547": 5474,
  "U1586": 5475,
  "U1893": 5476,
  "U2276": 5477,
  "U335": 5478,
  "U6020": 5479,
  "U6237": 5480,
  "U6432": 5481,
  "U1545": 5482,
  "U1954": 5483,
  "U6130": 5484,
  "U325": 5485,
  "U6966": 5486,
  "U2821": 5487,
  "U4946": 5488,
  "U9716": 5489,
  "U7655": 5490,
  "U4240": 5491,
  "U2757": 5492,
  "U8263": 5493,
  "U8781": 5494,
  "U1994": 5495,
  "U4627": 5496,
  "U6029": 5497,
  "U4206": 5498,
  "U5979": 5499,
  "U2252": 5500,
  "U8838": 5501,
  "U9117": 5502,
  "U1552": 5503,
  "U1550": 5504,
  "U4837": 5505,
  "U6645": 5506,
  "U2939": 5507,
  "U9823": 5508,
  "U6896": 5509,
  "U744": 5510,
  "U266": 5511,
  "U2687": 5512,
  "U727": 5513,
  "U7718": 5514,
  "U7394": 5515,
  "U5299": 5516,
  "U2675": 5517,
  "U3425": 5518,
  "U4171": 5519,
  "U4432": 5520,
  "U5059": 5521,
  "U5072": 5522,
  "U6922": 5523,
  "U7130": 5524,
  "U8675": 5525,
  "U9110": 5526,
  "U9115": 5527,
  "U9177": 5528,
  "U1563": 5529,
  "U9303": 5530,
  "U5750": 5531,
  "U4467": 5532,
  "U1467": 5533,
  "U6557": 5534,
  "U1605": 5535,
  "U9131": 5536,
  "U1799": 5537,
  "U3238": 5538,
  "U419": 5539,
  "U1564": 5540,
  "U188": 5541,
  "U1565": 5542,
  "U1566": 5543,
  "U1568": 5544,
  "U7365": 5545,
  "U8093": 5546,
  "U1868": 5547,
  "U1571": 5548,
  "U1570": 5549,
  "U7372": 5550,
  "U1867": 5551,
  "U3819": 5552,
  "U3912": 5553,
  "U981": 5554,
  "U3006": 5555,
  "U3363": 5556,
  "U5836": 5557,
  "U8670": 5558,
  "U9447": 5559,
  "U1892": 5560,
  "U1013": 5561,
  "U1874": 5562,
  "U709": 5563,
  "U1300": 5564,
  "U1572": 5565,
  "U1881": 5566,
  "U1611": 5567,
  "U3577": 5568,
  "U2180": 5569,
  "U7767": 5570,
  "U1870": 5571,
  "U1863": 5572,
  "U1319": 5573,
  "U1464": 5574,
  "U1871": 5575,
  "U5291": 5576,
  "U8584": 5577,
  "U1575": 5578,
  "U700": 5579,
  "U2001": 5580,
  "U1878": 5581,
  "U387": 5582,
  "U1576": 5583,
  "U5307": 5584,
  "U3033": 5585,
  "U9067": 5586,
  "U9358": 5587,
  "U1593": 5588,
  "U1360": 5589,
  "U1362": 5590,
  "U7380": 5591,
  "U1899": 5592,
  "U1901": 5593,
  "U1891": 5594,
  "U4763": 5595,
  "U3881": 5596,
  "U1912": 5597,
  "U8588": 5598,
  "U7135": 5599,
  "U1794": 5600,
  "U8235": 5601,
  "U2856": 5602,
  "U1914": 5603,
  "U8590": 5604,
  "U9846": 5605,
  "U11682": 5606,
  "U5913": 5607,
  "U2204": 5608,
  "U1911": 5609,
  "U1887": 5610,
  "U7520": 5611,
  "U1944": 5612,
  "U3299": 5613,
  "U1920": 5614,
  "U1904": 5615,
  "U1903": 5616,
  "U2002": 5617,
  "U1921": 5618,
  "U1959": 5619,
  "U8604": 5620,
  "U1942": 5621,
  "U1970": 5622,
  "U1909": 5623,
  "U7575": 5624,
  "U1939": 5625,
  "U2027": 5626,
  "U8602": 5627,
  "U2207": 5628,
  "U1927": 5629,
  "U1981": 5630,
  "U1973": 5631,
  "U8609": 5632,
  "U8605": 5633,
  "U1974": 5634,
  "U8612": 5635,
  "U1598": 5636,
  "U9847": 5637,
  "U1957": 5638,
  "U1765": 5639,
  "U2253": 5640,
  "U7402": 5641,
  "U8606": 5642,
  "U8598": 5643,
  "U1906": 5644,
  "U8645": 5645,
  "U1984": 5646,
  "U2059": 5647,
  "U1875": 5648,
  "U487": 5649,
  "U2003": 5650,
  "U712": 5651,
  "U8626": 5652,
  "U1982": 5653,
  "U2010": 5654,
  "U8615": 5655,
  "U8554": 5656,
  "U2319": 5657,
  "U2169": 5658,
  "U2154": 5659,
  "U1997": 5660,
  "U1972": 5661,
  "U1956": 5662,
  "U7114": 5663,
  "U9884": 5664,
  "U1946": 5665,
  "U1291": 5666,
  "U8678": 5667,
  "U7058": 5668,
  "U1955": 5669,
  "U9189": 5670,
  "U2157": 5671,
  "U2040": 5672,
  "U1979": 5673,
  "U8610": 5674,
  "U6394": 5675,
  "U5270": 5676,
  "U2011": 5677,
  "U6265": 5678,
  "U1926": 5679,
  "U2109": 5680,
  "U2055": 5681,
  "U2131": 5682,
  "U12320": 5683,
  "U2690": 5684,
  "U7326": 5685,
  "U12173": 5686,
  "U2434": 5687,
  "U2015": 5688,
  "U2021": 5689,
  "U1916": 5690,
  "U2166": 5691,
  "U7348": 5692,
  "U7289": 5693,
  "U2072": 5694,
  "U2857": 5695,
  "U7479": 5696,
  "U2068": 5697,
  "U2034": 5698,
  "U7448": 5699,
  "U8594": 5700,
  "U7447": 5701,
  "U3160": 5702,
  "U2147": 5703,
  "U8621": 5704,
  "U2168": 5705,
  "U2086": 5706,
  "U1886": 5707,
  "U8545": 5708,
  "U1936": 5709,
  "U8719": 5710,
  "U2222": 5711,
  "U2145": 5712,
  "U2466": 5713,
  "U1980": 5714,
  "U2108": 5715,
  "U2425": 5716,
  "U8644": 5717,
  "U7405": 5718,
  "U7736": 5719,
  "U10597": 5720,
  "U7406": 5721,
  "U1085": 5722,
  "U2123": 5723,
  "U9848": 5724,
  "U2294": 5725,
  "U2186": 5726,
  "U2237": 5727,
  "U8242": 5728,
  "U2125": 5729,
  "U2847": 5730,
  "U2914": 5731,
  "U8662": 5732,
  "U9849": 5733,
  "U2020": 5734,
  "U2138": 5735,
  "U2241": 5736,
  "U8657": 5737,
  "U7404": 5738,
  "U2134": 5739,
  "U7415": 5740,
  "U2315": 5741,
  "U3118": 5742,
  "U1607": 5743,
  "U4491": 5744,
  "U2006": 5745,
  "U2244": 5746,
  "U2024": 5747,
  "U2044": 5748,
  "U684": 5749,
  "U3946": 5750,
  "U2202": 5751,
  "U3220": 5752,
  "U3233": 5753,
  "U3232": 5754,
  "U3040": 5755,
  "U5995": 5756,
  "U2101": 5757,
  "U4247": 5758,
  "U2132": 5759,
  "U8659": 5760,
  "U2133": 5761,
  "U2150": 5762,
  "U8611": 5763,
  "U2008": 5764,
  "U3250": 5765,
  "U3324": 5766,
  "U2257": 5767,
  "U2324": 5768,
  "U2784": 5769,
  "U2187": 5770,
  "U6593": 5771,
  "U2228": 5772,
  "U2164": 5773,
  "U2189": 5774,
  "U8829": 5775,
  "U2167": 5776,
  "U2259": 5777,
  "U2050": 5778,
  "U2151": 5779,
  "U3028": 5780,
  "U2196": 5781,
  "U2153": 5782,
  "U9850": 5783,
  "U2320": 5784,
  "U2560": 5785,
  "U3079": 5786,
  "U1895": 5787,
  "U2328": 5788,
  "U2233": 5789,
  "U2184": 5790,
  "U7421": 5791,
  "U2399": 5792,
  "U6373": 5793,
  "U8716": 5794,
  "U2594": 5795,
  "U8706": 5796,
  "U2394": 5797,
  "U2591": 5798,
  "U2520": 5799,
  "U2849": 5800,
  "U9851": 5801,
  "U2359": 5802,
  "U2376": 5803,
  "U2245": 5804,
  "U8039": 5805,
  "U2344": 5806,
  "U2162": 5807,
  "U3594": 5808,
  "U2579": 5809,
  "U7357": 5810,
  "U2144": 5811,
  "U2311": 5812,
  "U2312": 5813,
  "U4597": 5814,
  "U2455": 5815,
  "U2865": 5816,
  "U2573": 5817,
  "U7418": 5818,
  "U6925": 5819,
  "U2415": 5820,
  "U7185": 5821,
  "U2213": 5822,
  "U4036": 5823,
  "U2226": 5824,
  "U8656": 5825,
  "U2456": 5826,
  "U1656": 5827,
  "U4116": 5828,
  "U6484": 5829,
  "U6730": 5830,
  "U7902": 5831,
  "U2340": 5832,
  "U2958": 5833,
  "U8717": 5834,
  "U2704": 5835,
  "U1569": 5836,
  "U2296": 5837,
  "U2238": 5838,
  "U2191": 5839,
  "U9123": 5840,
  "U2395": 5841,
  "U3470": 5842,
  "U8699": 5843,
  "U1612": 5844,
  "U2203": 5845,
  "U2243": 5846,
  "U7428": 5847,
  "U7466": 5848,
  "U2801": 5849,
  "U2255": 5850,
  "U2365": 5851,
  "U8691": 5852,
  "U9852": 5853,
  "U3066": 5854,
  "U3390": 5855,
  "U8316": 5856,
  "U2519": 5857,
  "U5518": 5858,
  "U9853": 5859,
  "U9854": 5860,
  "U7487": 5861,
  "U8682": 5862,
  "U9615": 5863,
  "U3613": 5864,
  "U6563": 5865,
  "U8733": 5866,
  "U2350": 5867,
  "U4556": 5868,
  "U2563": 5869,
  "U2589": 5870,
  "U2268": 5871,
  "U2061": 5872,
  "U8668": 5873,
  "U8664": 5874,
  "U2477": 5875,
  "U2467": 5876,
  "U7288": 5877,
  "U2267": 5878,
  "U2699": 5879,
  "U2597": 5880,
  "U2357": 5881,
  "U2923": 5882,
  "U2384": 5883,
  "U2107": 5884,
  "U7407": 5885,
  "U6823": 5886,
  "U9855": 5887,
  "U1935": 5888,
  "U2305": 5889,
  "U8795": 5890,
  "U2771": 5891,
  "U6164": 5892,
  "U1688": 5893,
  "U3507": 5894,
  "U2373": 5895,
  "U7397": 5896,
  "U8720": 5897,
  "U2474": 5898,
  "U2491": 5899,
  "U2269": 5900,
  "U2476": 5901,
  "U454": 5902,
  "U2442": 5903,
  "U2313": 5904,
  "U2501": 5905,
  "U2609": 5906,
  "U2462": 5907,
  "U2347": 5908,
  "U1713": 5909,
  "U2615": 5910,
  "U2514": 5911,
  "U8637": 5912,
  "U1281": 5913,
  "U135": 5914,
  "U8779": 5915,
  "U2438": 5916,
  "U2363": 5917,
  "U5987": 5918,
  "U1438": 5919,
  "U6403": 5920,
  "U8771": 5921,
  "U2556": 5922,
  "U2331": 5923,
  "U7764": 5924,
  "U2353": 5925,
  "U2527": 5926,
  "U4486": 5927,
  "U10005": 5928,
  "U3777": 5929,
  "U2557": 5930,
  "U2183": 5931,
  "U3008": 5932,
  "U2089": 5933,
  "U4977": 5934,
  "U1039": 5935,
  "U8624": 5936,
  "U2200": 5937,
  "U2277": 5938,
  "U2403": 5939,
  "U1678": 5940,
  "U3256": 5941,
  "U3170": 5942,
  "U5529": 5943,
  "U2555": 5944,
  "U2533": 5945,
  "U8702": 5946,
  "U2626": 5947,
  "U2696": 5948,
  "U7425": 5949,
  "U2495": 5950,
  "U2426": 5951,
  "U2612": 5952,
  "U9413": 5953,
  "U7386": 5954,
  "U2629": 5955,
  "U2239": 5956,
  "U2544": 5957,
  "U2469": 5958,
  "U7409": 5959,
  "U3377": 5960,
  "U2339": 5961,
  "U2577": 5962,
  "U7456": 5963,
  "U3208": 5964,
  "U6468": 5965,
  "U3034": 5966,
  "U2223": 5967,
  "U7429": 5968,
  "U9856": 5969,
  "U3152": 5970,
  "U2517": 5971,
  "U2634": 5972,
  "U2712": 5973,
  "U3080": 5974,
  "U9227": 5975,
  "U9857": 5976,
  "U8722": 5977,
  "U2448": 5978,
  "U3619": 5979,
  "U2781": 5980,
  "U2482": 5981,
  "U8745": 5982,
  "U2885": 5983,
  "U8784": 5984,
  "U2754": 5985,
  "U2512": 5986,
  "U2987": 5987,
  "U4635": 5988,
  "U2676": 5989,
  "U2844": 5990,
  "U2832": 5991,
  "U3255": 5992,
  "U7066": 5993,
  "U2761": 5994,
  "U2446": 5995,
  "U6417": 5996,
  "U8783": 5997,
  "U3863": 5998,
  "U3366": 5999,
  "U2379": 6000,
  "U3060": 6001,
  "U4422": 6002,
  "U2593": 6003,
  "U1745": 6004,
  "U2572": 6005,
  "U8715": 6006,
  "U8738": 6007,
  "U2817": 6008,
  "U2559": 6009,
  "U4140": 6010,
  "U3163": 6011,
  "U2595": 6012,
  "U2970": 6013,
  "U8707": 6014,
  "U2714": 6015,
  "U4801": 6016,
  "U2710": 6017,
  "U2100": 6018,
  "U2719": 6019,
  "U2728": 6020,
  "U8743": 6021,
  "U7446": 6022,
  "U7451": 6023,
  "U8692": 6024,
  "U2653": 6025,
  "U3183": 6026,
  "U6757": 6027,
  "U2758": 6028,
  "U2539": 6029,
  "U2725": 6030,
  "U7914": 6031,
  "U1588": 6032,
  "U2802": 6033,
  "U1711": 6034,
  "U1624": 6035,
  "U3187": 6036,
  "U2672": 6037,
  "U2724": 6038,
  "U2646": 6039,
  "U8801": 6040,
  "U7440": 6041,
  "U7400": 6042,
  "U2574": 6043,
  "U2582": 6044,
  "U4010": 6045,
  "U2825": 6046,
  "U5377": 6047,
  "U3067": 6048,
  "U3172": 6049,
  "U5320": 6050,
  "U3398": 6051,
  "U2625": 6052,
  "U2282": 6053,
  "U8709": 6054,
  "U8832": 6055,
  "U8744": 6056,
  "U2325": 6057,
  "U8768": 6058,
  "U1876": 6059,
  "U8797": 6060,
  "U2953": 6061,
  "U2792": 6062,
  "U3301": 6063,
  "U4641": 6064,
  "U3242": 6065,
  "U8787": 6066,
  "U2836": 6067,
  "U8752": 6068,
  "U8764": 6069,
  "U1757": 6070,
  "U9858": 6071,
  "U4318": 6072,
  "U8623": 6073,
  "U2961": 6074,
  "U6657": 6075,
  "U2931": 6076,
  "U10388": 6077,
  "U4416": 6078,
  "U2855": 6079,
  "U3092": 6080,
  "U2400": 6081,
  "U2414": 6082,
  "U2870": 6083,
  "U3380": 6084,
  "U10198": 6085,
  "U8734": 6086,
  "U7481": 6087,
  "U7786": 6088,
  "U2768": 6089,
  "U1983": 6090,
  "U8818": 6091,
  "U2606": 6092,
  "U3498": 6093,
  "U2500": 6094,
  "U2417": 6095,
  "U2850": 6096,
  "U8817": 6097,
  "U2621": 6098,
  "U2657": 6099,
  "U2839": 6100,
  "U2965": 6101,
  "U2982": 6102,
  "U3076": 6103,
  "U3357": 6104,
  "U8812": 6105,
  "U7969": 6106,
  "U2421": 6107,
  "U5124": 6108,
  "U6356": 6109,
  "U8799": 6110,
  "U7960": 6111,
  "U2988": 6112,
  "U3021": 6113,
  "U8831": 6114,
  "U3225": 6115,
  "U2787": 6116,
  "U3083": 6117,
  "U8800": 6118,
  "U463": 6119,
  "U11526": 6120,
  "U5108": 6121,
  "U2644": 6122,
  "U8785": 6123,
  "U3794": 6124,
  "U6520": 6125,
  "U7250": 6126,
  "U3049": 6127,
  "U8701": 6128,
  "U8895": 6129,
  "U8835": 6130,
  "U2807": 6131,
  "U2888": 6132,
  "U5044": 6133,
  "U2355": 6134,
  "U4389": 6135,
  "U8863": 6136,
  "U1401": 6137,
  "U2872": 6138,
  "U51": 6139,
  "U7444": 6140,
  "U8794": 6141,
  "U4924": 6142,
  "U3036": 6143,
  "U3161": 6144,
  "U7599": 6145,
  "U3386": 6146,
  "U2677": 6147,
  "U8868": 6148,
  "U3274": 6149,
  "U2673": 6150,
  "U2776": 6151,
  "U2679": 6152,
  "U2611": 6153,
  "U2587": 6154,
  "U1352": 6155,
  "U7198": 6156,
  "U3288": 6157,
  "U4383": 6158,
  "U9859": 6159,
  "U5555": 6160,
  "U7471": 6161,
  "U9020": 6162,
  "U7476": 6163,
  "U9860": 6164,
  "U3844": 6165,
  "U4135": 6166,
  "U2901": 6167,
  "U8549": 6168,
  "U3713": 6169,
  "U7787": 6170,
  "U3362": 6171,
  "U2903": 6172,
  "U8815": 6173,
  "U2913": 6174,
  "U3969": 6175,
  "U3276": 6176,
  "U5082": 6177,
  "U2623": 6178,
  "U2750": 6179,
  "U2695": 6180,
  "U2937": 6181,
  "U3417": 6182,
  "U2767": 6183,
  "U8655": 6184,
  "U2119": 6185,
  "U9166": 6186,
  "U8807": 6187,
  "U3426": 6188,
  "U2263": 6189,
  "U2990": 6190,
  "U7461": 6191,
  "U2717": 6192,
  "U3345": 6193,
  "U2685": 6194,
  "U3896": 6195,
  "U1682": 6196,
  "U1737": 6197,
  "U8970": 6198,
  "U9861": 6199,
  "U2739": 6200,
  "U3388": 6201,
  "U8405": 6202,
  "U2796": 6203,
  "U3247": 6204,
  "U2873": 6205,
  "U2674": 6206,
  "U8914": 6207,
  "U2102": 6208,
  "U8791": 6209,
  "U3319": 6210,
  "U5847": 6211,
  "U2726": 6212,
  "U5063": 6213,
  "U8982": 6214,
  "U2684": 6215,
  "U9657": 6216,
  "U7460": 6217,
  "U8318": 6218,
  "U8913": 6219,
  "U5938": 6220,
  "U8374": 6221,
  "U3678": 6222,
  "U2892": 6223,
  "U5530": 6224,
  "U3002": 6225,
  "U8839": 6226,
  "U2891": 6227,
  "U3190": 6228,
  "U1406": 6229,
  "U3258": 6230,
  "U3059": 6231,
  "U3760": 6232,
  "U7495": 6233,
  "U8859": 6234,
  "U8698": 6235,
  "U2662": 6236,
  "U8250": 6237,
  "U2986": 6238,
  "U3018": 6239,
  "U3479": 6240,
  "U7358": 6241,
  "U3142": 6242,
  "U2515": 6243,
  "U7464": 6244,
  "U1336": 6245,
  "U2650": 6246,
  "U3748": 6247,
  "U7490": 6248,
  "U7632": 6249,
  "U7863": 6250,
  "U2743": 6251,
  "U4092": 6252,
  "U3318": 6253,
  "U5281": 6254,
  "U3464": 6255,
  "U2877": 6256,
  "U3350": 6257,
  "U4715": 6258,
  "U8819": 6259,
  "U3651": 6260,
  "U3315": 6261,
  "U9092": 6262,
  "U7530": 6263,
  "U3226": 6264,
  "U3870": 6265,
  "U7475": 6266,
  "U7507": 6267,
  "U8423": 6268,
  "U4335": 6269,
  "U6708": 6270,
  "U3136": 6271,
  "U6894": 6272,
  "U6906": 6273,
  "U3495": 6274,
  "U5957": 6275,
  "U2778": 6276,
  "U3572": 6277,
  "U3141": 6278,
  "U8422": 6279,
  "U8965": 6280,
  "U4338": 6281,
  "U3075": 6282,
  "U3313": 6283,
  "U5564": 6284,
  "U3279": 6285,
  "U6724": 6286,
  "U3269": 6287,
  "U2858": 6288,
  "U3065": 6289,
  "U594": 6290,
  "U2875": 6291,
  "U3392": 6292,
  "U8979": 6293,
  "U6167": 6294,
  "U3399": 6295,
  "U6624": 6296,
  "U8910": 6297,
  "U1693": 6298,
  "U9545": 6299,
  "U3094": 6300,
  "U8911": 6301,
  "U3223": 6302,
  "U6990": 6303,
  "U2956": 6304,
  "U3669": 6305,
  "U9862": 6306,
  "U3180": 6307,
  "U3954": 6308,
  "U3604": 6309,
  "U4261": 6310,
  "U984": 6311,
  "U4840": 6312,
  "U5797": 6313,
  "U8810": 6314,
  "U3354": 6315,
  "U9271": 6316,
  "U7454": 6317,
  "U960": 6318,
  "U3395": 6319,
  "U1615": 6320,
  "U1773": 6321,
  "U7698": 6322,
  "U3663": 6323,
  "U3450": 6324,
  "U3430": 6325,
  "U8666": 6326,
  "U6119": 6327,
  "U7565": 6328,
  "U8949": 6329,
  "U2924": 6330,
  "U3438": 6331,
  "U7573": 6332,
  "U9863": 6333,
  "U6010": 6334,
  "U8994": 6335,
  "U3052": 6336,
  "U9864": 6337,
  "U3298": 6338,
  "U1692": 6339,
  "U3566": 6340,
  "U3119": 6341,
  "U3422": 6342,
  "U8874": 6343,
  "U2723": 6344,
  "U3394": 6345,
  "U3322": 6346,
  "U3356": 6347,
  "U3264": 6348,
  "U7999": 6349,
  "U3955": 6350,
  "U4394": 6351,
  "U2627": 6352,
  "U7503": 6353,
  "U3290": 6354,
  "U4501": 6355,
  "U4101": 6356,
  "U6713": 6357,
  "U6634": 6358,
  "U2747": 6359,
  "U3932": 6360,
  "U8903": 6361,
  "U1701": 6362,
  "U8919": 6363,
  "U4073": 6364,
  "U3789": 6365,
  "U9022": 6366,
  "U4940": 6367,
  "U9865": 6368,
  "U9866": 6369,
  "U3090": 6370,
  "U3166": 6371,
  "U8017": 6372,
  "U8262": 6373,
  "U3038": 6374,
  "U9705": 6375,
  "U3370": 6376,
  "U3347": 6377,
  "U4343": 6378,
  "U3189": 6379,
  "U8043": 6380,
  "U5962": 6381,
  "U4311": 6382,
  "U3627": 6383,
  "U2874": 6384,
  "U3401": 6385,
  "U3848": 6386,
  "U4336": 6387,
  "U10818": 6388,
  "U9498": 6389,
  "U2721": 6390,
  "U5023": 6391,
  "U3759": 6392,
  "U1851": 6393,
  "U10172": 6394,
  "U2823": 6395,
  "U2808": 6396,
  "U5796": 6397,
  "U7526": 6398,
  "U8924": 6399,
  "U2592": 6400,
  "U2898": 6401,
  "U3497": 6402,
  "U3670": 6403,
  "U1722": 6404,
  "U3423": 6405,
  "U7355": 6406,
  "U3965": 6407,
  "U7059": 6408,
  "U3676": 6409,
  "U7009": 6410,
  "U6429": 6411,
  "U3551": 6412,
  "U3567": 6413,
  "U8899": 6414,
  "U7501": 6415,
  "U7889": 6416,
  "U3592": 6417,
  "U7356": 6418,
  "U2859": 6419,
  "U8879": 6420,
  "U2713": 6421,
  "U3042": 6422,
  "U3719": 6423,
  "U4089": 6424,
  "U4153": 6425,
  "U7513": 6426,
  "U3674": 6427,
  "U9867": 6428,
  "U3816": 6429,
  "U3307": 6430,
  "U6876": 6431,
  "U5720": 6432,
  "U8516": 6433,
  "U8754": 6434,
  "U7433": 6435,
  "U6699": 6436,
  "U2843": 6437,
  "U3037": 6438,
  "U3571": 6439,
  "U3179": 6440,
  "U7337": 6441,
  "U8766": 6442,
  "U8888": 6443,
  "U7412": 6444,
  "U3801": 6445,
  "U4773": 6446,
  "U3554": 6447,
  "U922": 6448,
  "U3239": 6449,
  "U3562": 6450,
  "U3410": 6451,
  "U7001": 6452,
  "U9232": 6453,
  "U1962": 6454,
  "U5929": 6455,
  "U4686": 6456,
  "U3458": 6457,
  "U3772": 6458,
  "U3509": 6459,
  "U4007": 6460,
  "U5945": 6461,
  "U7483": 6462,
  "U3732": 6463,
  "U3375": 6464,
  "U6184": 6465,
  "U4093": 6466,
  "U8055": 6467,
  "U2909": 6468,
  "U7597": 6469,
  "U3349": 6470,
  "U3666": 6471,
  "U3606": 6472,
  "U9157": 6473,
  "U4609": 6474,
  "U1864": 6475,
  "U5662": 6476,
  "U3219": 6477,
  "U4165": 6478,
  "U12282": 6479,
  "U7783": 6480,
  "U9868": 6481,
  "U8939": 6482,
  "U9094": 6483,
  "U3880": 6484,
  "U9029": 6485,
  "U7524": 6486,
  "U3809": 6487,
  "U4132": 6488,
  "U6721": 6489,
  "U4155": 6490,
  "U3963": 6491,
  "U8877": 6492,
  "U858": 6493,
  "U7375": 6494,
  "U8923": 6495,
  "U12347": 6496,
  "U3605": 6497,
  "U3344": 6498,
  "U3314": 6499,
  "U1621": 6500,
  "U2284": 6501,
  "U3724": 6502,
  "U4399": 6503,
  "U7499": 6504,
  "U4070": 6505,
  "U3846": 6506,
  "U3440": 6507,
  "U8940": 6508,
  "U3396": 6509,
  "U3414": 6510,
  "U7533": 6511,
  "U3164": 6512,
  "U6323": 6513,
  "U7086": 6514,
  "U3902": 6515,
  "U3462": 6516,
  "U3391": 6517,
  "U4003": 6518,
  "U3851": 6519,
  "U8255": 6520,
  "U4292": 6521,
  "U9032": 6522,
  "U3981": 6523,
  "U3096": 6524,
  "U6250": 6525,
  "U9706": 6526,
  "U5762": 6527,
  "U6574": 6528,
  "U11045": 6529,
  "U7085": 6530,
  "U3716": 6531,
  "U7255": 6532,
  "U7512": 6533,
  "U7523": 6534,
  "U5695": 6535,
  "U5467": 6536,
  "U9042": 6537,
  "U3708": 6538,
  "U8992": 6539,
  "U3198": 6540,
  "U3528": 6541,
  "U4099": 6542,
  "U122": 6543,
  "U8603": 6544,
  "U3752": 6545,
  "U8967": 6546,
  "U3769": 6547,
  "U9050": 6548,
  "U9870": 6549,
  "U4427": 6550,
  "U4681": 6551,
  "U1732": 6552,
  "U3977": 6553,
  "U4709": 6554,
  "U6118": 6555,
  "U7336": 6556,
  "U6686": 6557,
  "U3684": 6558,
  "U8955": 6559,
  "U1910": 6560,
  "U3436": 6561,
  "U2298": 6562,
  "U4741": 6563,
  "U3055": 6564,
  "U7552": 6565,
  "U9871": 6566,
  "U5362": 6567,
  "U5852": 6568,
  "U6599": 6569,
  "U4037": 6570,
  "U9375": 6571,
  "U3446": 6572,
  "U3481": 6573,
  "U5756": 6574,
  "U3714": 6575,
  "U4390": 6576,
  "U2580": 6577,
  "U3757": 6578,
  "U3712": 6579,
  "U3795": 6580,
  "U9076": 6581,
  "U3710": 6582,
  "U3766": 6583,
  "U2729": 6584,
  "U3124": 6585,
  "U8452": 6586,
  "U3305": 6587,
  "U1445": 6588,
  "U3240": 6589,
  "U8959": 6590,
  "U7878": 6591,
  "U3877": 6592,
  "U3972": 6593,
  "U3309": 6594,
  "U3404": 6595,
  "U4656": 6596,
  "U3402": 6597,
  "U1455": 6598,
  "U7492": 6599,
  "U3543": 6600,
  "U8972": 6601,
  "U3856": 6602,
  "U8904": 6603,
  "U3920": 6604,
  "U3782": 6605,
  "U9872": 6606,
  "U4147": 6607,
  "U6481": 6608,
  "U2295": 6609,
  "U4034": 6610,
  "U3808": 6611,
  "U9062": 6612,
  "U9257": 6613,
  "U2918": 6614,
  "U1148": 6615,
  "U3978": 6616,
  "U3885": 6617,
  "U1017": 6618,
  "U3948": 6619,
  "U3916": 6620,
  "U3888": 6621,
  "U3419": 6622,
  "U6470": 6623,
  "U4049": 6624,
  "U3593": 6625,
  "U2952": 6626,
  "U3883": 6627,
  "U9873": 6628,
  "U4177": 6629,
  "U3800": 6630,
  "U3027": 6631,
  "U8840": 6632,
  "U4273": 6633,
  "U4368": 6634,
  "U1856": 6635,
  "U3773": 6636,
  "U8933": 6637,
  "U3642": 6638,
  "U4159": 6639,
  "U6968": 6640,
  "U4188": 6641,
  "U4268": 6642,
  "U7027": 6643,
  "U9194": 6644,
  "U8038": 6645,
  "U9078": 6646,
  "U3791": 6647,
  "U9875": 6648,
  "U3736": 6649,
  "U3056": 6650,
  "U9876": 6651,
  "U5911": 6652,
  "U9165": 6653,
  "U2694": 6654,
  "U4628": 6655,
  "U4803": 6656,
  "U8893": 6657,
  "U9877": 6658,
  "U2369": 6659,
  "U3229": 6660,
  "U6581": 6661,
  "U9622": 6662,
  "U3992": 6663,
  "U3681": 6664,
  "U1646": 6665,
  "U9122": 6666,
  "U9523": 6667,
  "U4360": 6668,
  "U4181": 6669,
  "U3657": 6670,
  "U1861": 6671,
  "U4469": 6672,
  "U9080": 6673,
  "U3834": 6674,
  "U4914": 6675,
  "U4753": 6676,
  "U9095": 6677,
  "U3599": 6678,
  "U3499": 6679,
  "U4001": 6680,
  "U6404": 6681,
  "U7634": 6682,
  "U9119": 6683,
  "U3273": 6684,
  "U4209": 6685,
  "U4860": 6686,
  "U4234": 6687,
  "U4472": 6688,
  "U9086": 6689,
  "U3431": 6690,
  "U4156": 6691,
  "U9821": 6692,
  "U9420": 6693,
  "U4391": 6694,
  "U4133": 6695,
  "U2963": 6696,
  "U4275": 6697,
  "U4192": 6698,
  "U4431": 6699,
  "U9878": 6700,
  "U9183": 6701,
  "U3838": 6702,
  "U4760": 6703,
  "U6064": 6704,
  "U6752": 6705,
  "U5607": 6706,
  "U3879": 6707,
  "U3829": 6708,
  "U5641": 6709,
  "U5643": 6710,
  "U11727": 6711,
  "U9043": 6712,
  "U9879": 6713,
  "U6602": 6714,
  "U6834": 6715,
  "U7239": 6716,
  "U9004": 6717,
  "U9164": 6718,
  "U4409": 6719,
  "U9880": 6720,
  "U6556": 6721,
  "U4168": 6722,
  "U4018": 6723,
  "U8991": 6724,
  "U4333": 6725,
  "U9035": 6726,
  "U1262": 6727,
  "U4106": 6728,
  "U2409": 6729,
  "U7582": 6730,
  "U3999": 6731,
  "U4005": 6732,
  "U3837": 6733,
  "U4615": 6734,
  "U3928": 6735,
  "U9093": 6736,
  "U4295": 6737,
  "U3640": 6738,
  "U8993": 6739,
  "U2148": 6740,
  "U1208": 6741,
  "U5073": 6742,
  "U8934": 6743,
  "U3544": 6744,
  "U4052": 6745,
  "U4361": 6746,
  "U4493": 6747,
  "U4122": 6748,
  "U5434": 6749,
  "U4352": 6750,
  "U7477": 6751,
  "U4250": 6752,
  "U4455": 6753,
  "U1712": 6754,
  "U4788": 6755,
  "U3909": 6756,
  "U4071": 6757,
  "U7240": 6758,
  "U1090": 6759,
  "U7241": 6760,
  "U4316": 6761,
  "U9039": 6762,
  "U3820": 6763,
  "U3949": 6764,
  "U3980": 6765,
  "U4077": 6766,
  "U10670": 6767,
  "U4679": 6768,
  "U4069": 6769,
  "U7322": 6770,
  "U4217": 6771,
  "U9634": 6772,
  "U3755": 6773,
  "U4652": 6774,
  "U4884": 6775,
  "U9018": 6776,
  "U3024": 6777,
  "U2944": 6778,
  "U3857": 6779,
  "U4124": 6780,
  "U4844": 6781,
  "U3596": 6782,
  "U4459": 6783,
  "U7150": 6784,
  "U9036": 6785,
  "U8981": 6786,
  "U3761": 6787,
  "U1742": 6788,
  "U9009": 6789,
  "U4502": 6790,
  "U7458": 6791,
  "U4198": 6792,
  "U5534": 6793,
  "U9216": 6794,
  "U9149": 6795,
  "U1641": 6796,
  "U3531": 6797,
  "U6977": 6798,
  "U4497": 6799,
  "U8977": 6800,
  "U6205": 6801,
  "U4000": 6802,
  "U4064": 6803,
  "U6182": 6804,
  "U4477": 6805,
  "U9882": 6806,
  "U1109": 6807,
  "U9888": 6808,
  "U8557": 6809,
  "U8396": 6810,
  "U3867": 6811,
  "U7596": 6812,
  "U8151": 6813,
  "U1475": 6814,
  "U3697": 6815,
  "U4314": 6816,
  "U7558": 6817,
  "U3939": 6818,
  "U4451": 6819,
  "U9883": 6820,
  "U9130": 6821,
  "U7226": 6822,
  "U4170": 6823,
  "U7633": 6824,
  "U8274": 6825,
  "U9118": 6826,
  "U9168": 6827,
  "U9479": 6828,
  "U4599": 6829,
  "U3961": 6830,
  "U4063": 6831,
  "U3987": 6832,
  "U9082": 6833,
  "U3764": 6834,
  "U4186": 6835,
  "U9885": 6836,
  "U4024": 6837,
  "U5335": 6838,
  "U4087": 6839,
  "U9144": 6840,
  "U3286": 6841,
  "U1225": 6842,
  "U8578": 6843,
  "U9109": 6844,
  "U4504": 6845,
  "U1698": 6846,
  "U2827": 6847,
  "U8187": 6848,
  "U4060": 6849,
  "U9897": 6850,
  "U8077": 6851,
  "U11478": 6852,
  "U7601": 6853,
  "U4804": 6854,
  "U5337": 6855,
  "U4818": 6856,
  "U4315": 6857,
  "U4545": 6858,
  "U4152": 6859,
  "U4815": 6860,
  "U1255": 6861,
  "U4500": 6862,
  "U8518": 6863,
  "U1744": 6864,
  "U2883": 6865,
  "U4251": 6866,
  "U4567": 6867,
  "U4568": 6868,
  "U9378": 6869,
  "U7210": 6870,
  "U1623": 6871,
  "U2431": 6872,
  "U9059": 6873,
  "U6337": 6874,
  "U3171": 6875,
  "U7547": 6876,
  "U6578": 6877,
  "U6576": 6878,
  "U9482": 6879,
  "U9886": 6880,
  "U4612": 6881,
  "U7859": 6882,
  "U4030": 6883,
  "U2534": 6884,
  "U3707": 6885,
  "U4120": 6886,
  "U4766": 6887,
  "U9887": 6888,
  "U1700": 6889,
  "U9007": 6890,
  "U7956": 6891,
  "U4117": 6892,
  "U3598": 6893,
  "U4307": 6894,
  "U3886": 6895,
  "U4269": 6896,
  "U2608": 6897,
  "U8711": 6898,
  "U6302": 6899,
  "U9889": 6900,
  "U4927": 6901,
  "U3555": 6902,
  "U4536": 6903,
  "U4578": 6904,
  "U9013": 6905,
  "U4263": 6906,
  "U3970": 6907,
  "U4484": 6908,
  "U2234": 6909,
  "U9890": 6910,
  "U318": 6911,
  "U8586": 6912,
  "U4582": 6913,
  "U1645": 6914,
  "U11290": 6915,
  "U4732": 6916,
  "U9162": 6917,
  "U4066": 6918,
  "U8285": 6919,
  "U9091": 6920,
  "U4875": 6921,
  "U9011": 6922,
  "U9251": 6923,
  "U3868": 6924,
  "U9891": 6925,
  "U2951": 6926,
  "U786": 6927,
  "U1628": 6928,
  "U4781": 6929,
  "U1637": 6930,
  "U5576": 6931,
  "U8330": 6932,
  "U4518": 6933,
  "U8525": 6934,
  "U3109": 6935,
  "U6860": 6936,
  "U3207": 6937,
  "U10424": 6938,
  "U5842": 6939,
  "U6070": 6940,
  "U4527": 6941,
  "U5845": 6942,
  "U4325": 6943,
  "U7732": 6944,
  "U9202": 6945,
  "U6035": 6946,
  "U4543": 6947,
  "U4182": 6948,
  "U1218": 6949,
  "U4995": 6950,
  "U6782": 6951,
  "U6617": 6952,
  "U4337": 6953,
  "U4515": 6954,
  "U5649": 6955,
  "U5213": 6956,
  "U1266": 6957,
  "U4614": 6958,
  "U3608": 6959,
  "U8337": 6960,
  "U4458": 6961,
  "U9281": 6962,
  "U9540": 6963,
  "U4236": 6964,
  "U4167": 6965,
  "U4646": 6966,
  "U9298": 6967,
  "U5438": 6968,
  "U6077": 6969,
  "U5978": 6970,
  "U4428": 6971,
  "U3621": 6972,
  "U5492": 6973,
  "U9892": 6974,
  "U6732": 6975,
  "U4682": 6976,
  "U8958": 6977,
  "U8254": 6978,
  "U8303": 6979,
  "U9893": 6980,
  "U4425": 6981,
  "U9385": 6982,
  "U5874": 6983,
  "U6148": 6984,
  "U5401": 6985,
  "U3297": 6986,
  "U9684": 6987,
  "U7334": 6988,
  "U3804": 6989,
  "U9946": 6990,
  "U5798": 6991,
  "U4426": 6992,
  "U7603": 6993,
  "U4733": 6994,
  "U4762": 6995,
  "U5282": 6996,
  "U6508": 6997,
  "U5352": 6998,
  "U3892": 6999,
  "U9894": 7000,
  "U9895": 7001,
  "U7642": 7002,
  "U6964": 7003,
  "U5545": 7004,
  "U3519": 7005,
  "U5526": 7006,
  "U4616": 7007,
  "U265": 7008,
  "U5292": 7009,
  "U4993": 7010,
  "U5761": 7011,
  "U4587": 7012,
  "U9400": 7013,
  "U3919": 7014,
  "U9800": 7015,
  "U2341": 7016,
  "U4166": 7017,
  "U5489": 7018,
  "U4592": 7019,
  "U2128": 7020,
  "U5425": 7021,
  "U4111": 7022,
  "U6389": 7023,
  "U1133": 7024,
  "U9075": 7025,
  "U6189": 7026,
  "U9426": 7027,
  "U9896": 7028,
  "U4481": 7029,
  "U7617": 7030,
  "U4851": 7031,
  "U5244": 7032,
  "U4438": 7033,
  "U4687": 7034,
  "U4277": 7035,
  "U9182": 7036,
  "U9141": 7037,
  "U3046": 7038,
  "U4890": 7039,
  "U7710": 7040,
  "U4522": 7041,
  "U9902": 7042,
  "U5510": 7043,
  "U4849": 7044,
  "U4411": 7045,
  "U4045": 7046,
  "U4215": 7047,
  "U6541": 7048,
  "U5364": 7049,
  "U2093": 7050,
  "U9001": 7051,
  "U5866": 7052,
  "U5110": 7053,
  "U964": 7054,
  "U4809": 7055,
  "U4826": 7056,
  "U4118": 7057,
  "U3913": 7058,
  "U4770": 7059,
  "U9903": 7060,
  "U9124": 7061,
  "U4363": 7062,
  "U4299": 7063,
  "U4194": 7064,
  "U5590": 7065,
  "U4702": 7066,
  "U5029": 7067,
  "U4538": 7068,
  "U4375": 7069,
  "U3891": 7070,
  "U5453": 7071,
  "U7618": 7072,
  "U9234": 7073,
  "U3900": 7074,
  "U4088": 7075,
  "U9492": 7076,
  "U4775": 7077,
  "U7901": 7078,
  "U4637": 7079,
  "U5219": 7080,
  "U9293": 7081,
  "U5005": 7082,
  "U9356": 7083,
  "U6764": 7084,
  "U9905": 7085,
  "U9270": 7086,
  "U1783": 7087,
  "U9284": 7088,
  "U4081": 7089,
  "U2371": 7090,
  "U9906": 7091,
  "U5192": 7092,
  "U3717": 7093,
  "U4162": 7094,
  "U5194": 7095,
  "U4902": 7096,
  "U8138": 7097,
  "U4982": 7098,
  "U7790": 7099,
  "U9243": 7100,
  "U5357": 7101,
  "U1775": 7102,
  "U1807": 7103,
  "U9339": 7104,
  "U9630": 7105,
  "U7055": 7106,
  "U9294": 7107,
  "U9114": 7108,
  "U4510": 7109,
  "U4704": 7110,
  "U8397": 7111,
  "U5466": 7112,
  "U4468": 7113,
  "U7607": 7114,
  "U4625": 7115,
  "U3472": 7116,
  "U8175": 7117,
  "U4889": 7118,
  "U7875": 7119,
  "U4402": 7120,
  "U4699": 7121,
  "U4555": 7122,
  "U4949": 7123,
  "U4991": 7124,
  "U6960": 7125,
  "U10311": 7126,
  "U1686": 7127,
  "U3813": 7128,
  "U6218": 7129,
  "U4544": 7130,
  "U9907": 7131,
  "U4348": 7132,
  "U3068": 7133,
  "U5424": 7134,
  "U5881": 7135,
  "U6787": 7136,
  "U5392": 7137,
  "U4351": 7138,
  "U8148": 7139,
  "U1634": 7140,
  "U4412": 7141,
  "U2967": 7142,
  "U5380": 7143,
  "U4255": 7144,
  "U5247": 7145,
  "U7681": 7146,
  "U5629": 7147,
  "U4968": 7148,
  "U7738": 7149,
  "U7853": 7150,
  "U10148": 7151,
  "U5264": 7152,
  "U9150": 7153,
  "U9221": 7154,
  "U4297": 7155,
  "U4319": 7156,
  "U9908": 7157,
  "U9262": 7158,
  "U4852": 7159,
  "U4958": 7160,
  "U8312": 7161,
  "U3581": 7162,
  "U7656": 7163,
  "U9220": 7164,
  "U9137": 7165,
  "U10120": 7166,
  "U4983": 7167,
  "U7584": 7168,
  "U7662": 7169,
  "U4742": 7170,
  "U6402": 7171,
  "U5048": 7172,
  "U4483": 7173,
  "U7657": 7174,
  "U4418": 7175,
  "U6153": 7176,
  "U5541": 7177,
  "U1680": 7178,
  "U9515": 7179,
  "U7682": 7180,
  "U3775": 7181,
  "U9201": 7182,
  "U1246": 7183,
  "U6316": 7184,
  "U9909": 7185,
  "U4443": 7186,
  "U5039": 7187,
  "U3842": 7188,
  "U9350": 7189,
  "U9910": 7190,
  "U6156": 7191,
  "U9236": 7192,
  "U3387": 7193,
  "U8153": 7194,
  "U9033": 7195,
  "U11986": 7196,
  "U9181": 7197,
  "U5201": 7198,
  "U9911": 7199,
  "U6586": 7200,
  "U7727": 7201,
  "U11351": 7202,
  "U6765": 7203,
  "U4618": 7204,
  "U7768": 7205,
  "U5064": 7206,
  "U9147": 7207,
  "U4589": 7208,
  "U3565": 7209,
  "U4698": 7210,
  "U5147": 7211,
  "U4722": 7212,
  "U3850": 7213,
  "U4944": 7214,
  "U7683": 7215,
  "U10299": 7216,
  "U8209": 7217,
  "U5964": 7218,
  "U7144": 7219,
  "U9738": 7220,
  "U9737": 7221,
  "U5505": 7222,
  "U12200": 7223,
  "U7811": 7224,
  "U4740": 7225,
  "U9691": 7226,
  "U4636": 7227,
  "U4841": 7228,
  "U5243": 7229,
  "U6804": 7230,
  "U9573": 7231,
  "U5127": 7232,
  "U4929": 7233,
  "U5329": 7234,
  "U9575": 7235,
  "U4810": 7236,
  "U3894": 7237,
  "U4833": 7238,
  "U9995": 7239,
  "U4460": 7240,
  "U4912": 7241,
  "U9206": 7242,
  "U8988": 7243,
  "U6459": 7244,
  "U7548": 7245,
  "U6085": 7246,
  "U7992": 7247,
  "U9404": 7248,
  "U6561": 7249,
  "U7201": 7250,
  "U9912": 7251,
  "U9913": 7252,
  "U5262": 7253,
  "U9432": 7254,
  "U6106": 7255,
  "U3897": 7256,
  "U5733": 7257,
  "U9395": 7258,
  "U9553": 7259,
  "U9579": 7260,
  "U128": 7261,
  "U5014": 7262,
  "U5318": 7263,
  "U5561": 7264,
  "U4970": 7265,
  "U10660": 7266,
  "U5862": 7267,
  "U6596": 7268,
  "U5088": 7269,
  "U6463": 7270,
  "U7369": 7271,
  "U4433": 7272,
  "U3998": 7273,
  "U7840": 7274,
  "U1632": 7275,
  "U4948": 7276,
  "U7637": 7277,
  "U4475": 7278,
  "U5205": 7279,
  "U7531": 7280,
  "U9915": 7281,
  "U6934": 7282,
  "U9916": 7283,
  "U6933": 7284,
  "U6863": 7285,
  "U5263": 7286,
  "U4201": 7287,
  "U7067": 7288,
  "U5832": 7289,
  "U6226": 7290,
  "U5084": 7291,
  "U4136": 7292,
  "U6086": 7293,
  "U5441": 7294,
  "U6717": 7295,
  "U4881": 7296,
  "U5354": 7297,
  "U5062": 7298,
  "U11946": 7299,
  "U7611": 7300,
  "U8284": 7301,
  "U5040": 7302,
  "U5625": 7303,
  "U9917": 7304,
  "U2840": 7305,
  "U5065": 7306,
  "U5572": 7307,
  "U6245": 7308,
  "U1402": 7309,
  "U5563": 7310,
  "U9261": 7311,
  "U5339": 7312,
  "U5332": 7313,
  "U4068": 7314,
  "U9759": 7315,
  "U6920": 7316,
  "U5442": 7317,
  "U9133": 7318,
  "U5454": 7319,
  "U11282": 7320,
  "U5690": 7321,
  "U11291": 7322,
  "U4800": 7323,
  "U5379": 7324,
  "U1690": 7325,
  "U5656": 7326,
  "U5050": 7327,
  "U4755": 7328,
  "U4931": 7329,
  "U5138": 7330,
  "U221": 7331,
  "U9212": 7332,
  "U6133": 7333,
  "U7577": 7334,
  "U6047": 7335,
  "U5509": 7336,
  "U5988": 7337,
  "U4575": 7338,
  "U5126": 7339,
  "U7293": 7340,
  "U7074": 7341,
  "U9264": 7342,
  "U5230": 7343,
  "U9543": 7344,
  "U5528": 7345,
  "U7717": 7346,
  "U4408": 7347,
  "U4885": 7348,
  "U5391": 7349,
  "U5449": 7350,
  "U5614": 7351,
  "U6208": 7352,
  "U6720": 7353,
  "U4776": 7354,
  "U9366": 7355,
  "U8181": 7356,
  "U9922": 7357,
  "U9921": 7358,
  "U5378": 7359,
  "U5821": 7360,
  "U452": 7361,
  "U5094": 7362,
  "U7858": 7363,
  "U330": 7364,
  "U9418": 7365,
  "U9370": 7366,
  "U2536": 7367,
  "U9501": 7368,
  "U9502": 7369,
  "U6056": 7370,
  "U10700": 7371,
  "U2613": 7372,
  "U5242": 7373,
  "U9756": 7374,
  "U4962": 7375,
  "U4289": 7376,
  "U5253": 7377,
  "U4829": 7378,
  "U4879": 7379,
  "U9315": 7380,
  "U5317": 7381,
  "U5259": 7382,
  "U7685": 7383,
  "U1389": 7384,
  "U9193": 7385,
  "U515": 7386,
  "U5300": 7387,
  "U4647": 7388,
  "U4935": 7389,
  "U5623": 7390,
  "U3489": 7391,
  "U9923": 7392,
  "U9924": 7393,
  "U5501": 7394,
  "U5008": 7395,
  "U9244": 7396,
  "U2303": 7397,
  "U4769": 7398,
  "U5027": 7399,
  "U7063": 7400,
  "U7052": 7401,
  "U9321": 7402,
  "U747": 7403,
  "U5283": 7404,
  "U6753": 7405,
  "U3259": 7406,
  "U9690": 7407,
  "U9771": 7408,
  "U7848": 7409,
  "U11867": 7410,
  "U4404": 7411,
  "U6931": 7412,
  "U9538": 7413,
  "U9347": 7414,
  "U6420": 7415,
  "U6910": 7416,
  "U9927": 7417,
  "U1823": 7418,
  "U4883": 7419,
  "U11186": 7420,
  "U6893": 7421,
  "U7678": 7422,
  "U4771": 7423,
  "U4913": 7424,
  "U7644": 7425,
  "U5645": 7426,
  "U7943": 7427,
  "U8458": 7428,
  "U1180": 7429,
  "U9928": 7430,
  "U7673": 7431,
  "U5500": 7432,
  "U6575": 7433,
  "U5372": 7434,
  "U7696": 7435,
  "U5188": 7436,
  "U5402": 7437,
  "U8215": 7438,
  "U5633": 7439,
  "U6526": 7440,
  "U6712": 7441,
  "U9929": 7442,
  "U5346": 7443,
  "U4984": 7444,
  "U4985": 7445,
  "U2538": 7446,
  "U2161": 7447,
  "U5030": 7448,
  "U5241": 7449,
  "U1648": 7450,
  "U5114": 7451,
  "U6485": 7452,
  "U3690": 7453,
  "U4661": 7454,
  "U9305": 7455,
  "U7416": 7456,
  "U7692": 7457,
  "U5506": 7458,
  "U5446": 7459,
  "U9930": 7460,
  "U7285": 7461,
  "U4149": 7462,
  "U5598": 7463,
  "U7713": 7464,
  "U9301": 7465,
  "U8546": 7466,
  "U3224": 7467,
  "U6238": 7468,
  "U5825": 7469,
  "U9606": 7470,
  "U1846": 7471,
  "U7760": 7472,
  "U4585": 7473,
  "U39": 7474,
  "U9401": 7475,
  "U5741": 7476,
  "U4814": 7477,
  "U1803": 7478,
  "U9932": 7479,
  "U9061": 7480,
  "U9396": 7481,
  "U9424": 7482,
  "U2337": 7483,
  "U7069": 7484,
  "U5734": 7485,
  "U7720": 7486,
  "U7330": 7487,
  "U7721": 7488,
  "U9191": 7489,
  "U3776": 7490,
  "U5344": 7491,
  "U6217": 7492,
  "U2004": 7493,
  "U4564": 7494,
  "U5028": 7495,
  "U5647": 7496,
  "U9073": 7497,
  "U5169": 7498,
  "U4731": 7499,
  "U10425": 7500,
  "U7799": 7501,
  "U4372": 7502,
  "U9934": 7503,
  "U5083": 7504,
  "U7142": 7505,
  "U8749": 7506,
  "U7254": 7507,
  "U7648": 7508,
  "U9935": 7509,
  "U5149": 7510,
  "U9308": 7511,
  "U8632": 7512,
  "U6200": 7513,
  "U4393": 7514,
  "U5455": 7515,
  "U7782": 7516,
  "U1831": 7517,
  "U4040": 7518,
  "U9280": 7519,
  "U7808": 7520,
  "U3418": 7521,
  "U885": 7522,
  "U9546": 7523,
  "U7993": 7524,
  "U7841": 7525,
  "U5539": 7526,
  "U5303": 7527,
  "U5250": 7528,
  "U7502": 7529,
  "U3506": 7530,
  "U9307": 7531,
  "U6190": 7532,
  "U5315": 7533,
  "U5970": 7534,
  "U9411": 7535,
  "U5894": 7536,
  "U5041": 7537,
  "U4129": 7538,
  "U4291": 7539,
  "U5785": 7540,
  "U5417": 7541,
  "U1120": 7542,
  "U5819": 7543,
  "U9936": 7544,
  "U3381": 7545,
  "U4308": 7546,
  "U9937": 7547,
  "U3471": 7548,
  "U6042": 7549,
  "U7705": 7550,
  "U7585": 7551,
  "U5163": 7552,
  "U1026": 7553,
  "U9514": 7554,
  "U5692": 7555,
  "U9938": 7556,
  "U4677": 7557,
  "U5139": 7558,
  "U9696": 7559,
  "U4972": 7560,
  "U9451": 7561,
  "U8527": 7562,
  "U5267": 7563,
  "U3575": 7564,
  "U6487": 7565,
  "U9939": 7566,
  "U9940": 7567,
  "U5427": 7568,
  "U5759": 7569,
  "U8836": 7570,
  "U4539": 7571,
  "U9334": 7572,
  "U7555": 7573,
  "U9160": 7574,
  "U6075": 7575,
  "U6097": 7576,
  "U5523": 7577,
  "U9942": 7578,
  "U5310": 7579,
  "U4955": 7580,
  "U7169": 7581,
  "U9382": 7582,
  "U5603": 7583,
  "U5383": 7584,
  "U9944": 7585,
  "U7688": 7586,
  "U10318": 7587,
  "U5556": 7588,
  "U5917": 7589,
  "U10139": 7590,
  "U10277": 7591,
  "U6268": 7592,
  "U9945": 7593,
  "U1582": 7594,
  "U613": 7595,
  "U9454": 7596,
  "U7734": 7597,
  "U5363": 7598,
  "U6613": 7599,
  "U8313": 7600,
  "U6608": 7601,
  "U1113": 7602,
  "U7801": 7603,
  "U1808": 7604,
  "U5531": 7605,
  "U6280": 7606,
  "U7370": 7607,
  "U6071": 7608,
  "U5605": 7609,
  "U4820": 7610,
  "U11793": 7611,
  "U6305": 7612,
  "U6822": 7613,
  "U3202": 7614,
  "U6728": 7615,
  "U7923": 7616,
  "U9348": 7617,
  "U9947": 7618,
  "U7505": 7619,
  "U5627": 7620,
  "U7772": 7621,
  "U6772": 7622,
  "U9828": 7623,
  "U5474": 7624,
  "U3785": 7625,
  "U5950": 7626,
  "U9948": 7627,
  "U5403": 7628,
  "U4941": 7629,
  "U9393": 7630,
  "U9317": 7631,
  "U1034": 7632,
  "U10089": 7633,
  "U6174": 7634,
  "U7753": 7635,
  "U7098": 7636,
  "U9594": 7637,
  "U5203": 7638,
  "U6648": 7639,
  "U5657": 7640,
  "U7740": 7641,
  "U5472": 7642,
  "U9580": 7643,
  "U9306": 7644,
  "U6261": 7645,
  "U9950": 7646,
  "U9949": 7647,
  "U9326": 7648,
  "U7797": 7649,
  "U6044": 7650,
  "U9472": 7651,
  "U7739": 7652,
  "U5725": 7653,
  "U3938": 7654,
  "U4244": 7655,
  "U5370": 7656,
  "U6342": 7657,
  "U9323": 7658,
  "U4891": 7659,
  "U5890": 7660,
  "U5133": 7661,
  "U3125": 7662,
  "U5730": 7663,
  "U5898": 7664,
  "U5914": 7665,
  "U7829": 7666,
  "U8178": 7667,
  "U5763": 7668,
  "U6605": 7669,
  "U5277": 7670,
  "U7589": 7671,
  "U9951": 7672,
  "U870": 7673,
  "U5146": 7674,
  "U8031": 7675,
  "U5498": 7676,
  "U9953": 7677,
  "U5107": 7678,
  "U9954": 7679,
  "U11854": 7680,
  "U7711": 7681,
  "U3475": 7682,
  "U9955": 7683,
  "U5610": 7684,
  "U6565": 7685,
  "U3726": 7686,
  "U8112": 7687,
  "U9749": 7688,
  "U5503": 7689,
  "U4767": 7690,
  "U1428": 7691,
  "U6422": 7692,
  "U7105": 7693,
  "U7093": 7694,
  "U11437": 7695,
  "U7281": 7696,
  "U5508": 7697,
  "U9470": 7698,
  "U9721": 7699,
  "U9464": 7700,
  "U5685": 7701,
  "U9467": 7702,
  "U5739": 7703,
  "U9289": 7704,
  "U7816": 7705,
  "U5928": 7706,
  "U10785": 7707,
  "U5519": 7708,
  "U5515": 7709,
  "U5066": 7710,
  "U5780": 7711,
  "U9702": 7712,
  "U11218": 7713,
  "U7263": 7714,
  "U1971": 7715,
  "U5788": 7716,
  "U7025": 7717,
  "U6448": 7718,
  "U5871": 7719,
  "U5571": 7720,
  "U3104": 7721,
  "U9332": 7722,
  "U7838": 7723,
  "U5918": 7724,
  "U6339": 7725,
  "U6758": 7726,
  "U9959": 7727,
  "U5853": 7728,
  "U8948": 7729,
  "U5090": 7730,
  "U9352": 7731,
  "U1800": 7732,
  "U8321": 7733,
  "U9960": 7734,
  "U9961": 7735,
  "U5678": 7736,
  "U6385": 7737,
  "U9963": 7738,
  "U9962": 7739,
  "U9655": 7740,
  "U4992": 7741,
  "U5682": 7742,
  "U9964": 7743,
  "U6600": 7744,
  "U9965": 7745,
  "U6830": 7746,
  "U10203": 7747,
  "U8110": 7748,
  "U5632": 7749,
  "U9469": 7750,
  "U9518": 7751,
  "U9394": 7752,
  "U9589": 7753,
  "U10551": 7754,
  "U7630": 7755,
  "U9450": 7756,
  "U6812": 7757,
  "U6667": 7758,
  "U5701": 7759,
  "U10678": 7760,
  "U5802": 7761,
  "U8346": 7762,
  "U6329": 7763,
  "U8420": 7764,
  "U8315": 7765,
  "U7335": 7766,
  "U4366": 7767,
  "U6462": 7768,
  "U10046": 7769,
  "U6346": 7770,
  "U6032": 7771,
  "U6868": 7772,
  "U6059": 7773,
  "U6866": 7774,
  "U1404": 7775,
  "U6066": 7776,
  "U7002": 7777,
  "U6869": 7778,
  "U7714": 7779,
  "U10579": 7780,
  "U4505": 7781,
  "U5207": 7782,
  "U830": 7783,
  "U5211": 7784,
  "U1660": 7785,
  "U5654": 7786,
  "U6384": 7787,
  "U5768": 7788,
  "U9215": 7789,
  "U6012": 7790,
  "U6381": 7791,
  "U3222": 7792,
  "U6953": 7793,
  "U10324": 7794,
  "U6131": 7795,
  "U9599": 7796,
  "U1275": 7797,
  "U4898": 7798,
  "U9967": 7799,
  "U6330": 7800,
  "U6332": 7801,
  "U6472": 7802,
  "U5884": 7803,
  "U1706": 7804,
  "U6577": 7805,
  "U6690": 7806,
  "U3501": 7807,
  "U12363": 7808,
  "U9675": 7809,
  "U5887": 7810,
  "U5923": 7811,
  "U6049": 7812,
  "U894": 7813,
  "U6718": 7814,
  "U9970": 7815,
  "U5829": 7816,
  "U9547": 7817,
  "U9968": 7818,
  "U7979": 7819,
  "U6630": 7820,
  "U9493": 7821,
  "U7116": 7822,
  "U6406": 7823,
  "U7805": 7824,
  "U8548": 7825,
  "U11519": 7826,
  "U6201": 7827,
  "U6313": 7828,
  "U7089": 7829,
  "U7153": 7830,
  "U9969": 7831,
  "U4999": 7832,
  "U4971": 7833,
  "U8013": 7834,
  "U9179": 7835,
  "U9757": 7836,
  "U7862": 7837,
  "U6825": 7838,
  "U1123": 7839,
  "U3326": 7840,
  "U6695": 7841,
  "U9971": 7842,
  "U7795": 7843,
  "U1657": 7844,
  "U6945": 7845,
  "U5153": 7846,
  "U9972": 7847,
  "U6099": 7848,
  "U8311": 7849,
  "U6938": 7850,
  "U5754": 7851,
  "U9973": 7852,
  "U4305": 7853,
  "U9360": 7854,
  "U9359": 7855,
  "U9986": 7856,
  "U9640": 7857,
  "U6480": 7858,
  "U7498": 7859,
  "U5606": 7860,
  "U6227": 7861,
  "U9349": 7862,
  "U6194": 7863,
  "U6542": 7864,
  "U9974": 7865,
  "U6437": 7866,
  "U9976": 7867,
  "U6435": 7868,
  "U8075": 7869,
  "U7861": 7870,
  "U6654": 7871,
  "U2368": 7872,
  "U6570": 7873,
  "U7833": 7874,
  "U6357": 7875,
  "U8104": 7876,
  "U4406": 7877,
  "U9476": 7878,
  "U6102": 7879,
  "U6759": 7880,
  "U6197": 7881,
  "U7284": 7882,
  "U6173": 7883,
  "U6116": 7884,
  "U6421": 7885,
  "U8328": 7886,
  "U8000": 7887,
  "U5543": 7888,
  "U6688": 7889,
  "U10802": 7890,
  "U6824": 7891,
  "U6476": 7892,
  "U9508": 7893,
  "U2884": 7894,
  "U6279": 7895,
  "U10412": 7896,
  "U6021": 7897,
  "U6297": 7898,
  "U6193": 7899,
  "U10114": 7900,
  "U7708": 7901,
  "U1928": 7902,
  "U6887": 7903,
  "U7251": 7904,
  "U7121": 7905,
  "U203": 7906,
  "U6033": 7907,
  "U7287": 7908,
  "U4980": 7909,
  "U4397": 7910,
  "U9512": 7911,
  "U9583": 7912,
  "U937": 7913,
  "U1609": 7914,
  "U11865": 7915,
  "U6536": 7916,
  "U6001": 7917,
  "U9587": 7918,
  "U9978": 7919,
  "U9979": 7920,
  "U11949": 7921,
  "U6300": 7922,
  "U6170": 7923,
  "U6068": 7924,
  "U6338": 7925,
  "U6295": 7926,
  "U6054": 7927,
  "U7964": 7928,
  "U9981": 7929,
  "U9980": 7930,
  "U9824": 7931,
  "U9982": 7932,
  "U6513": 7933,
  "U6254": 7934,
  "U6525": 7935,
  "U6631": 7936,
  "U9983": 7937,
  "U8120": 7938,
  "U8139": 7939,
  "U3510": 7940,
  "U5899": 7941,
  "U3744": 7942,
  "U6225": 7943,
  "U8349": 7944,
  "U6239": 7945,
  "U10782": 7946,
  "U8161": 7947,
  "U11629": 7948,
  "U10051": 7949,
  "U6450": 7950,
  "U6120": 7951,
  "U9463": 7952,
  "U7147": 7953,
  "U5721": 7954,
  "U5790": 7955,
  "U9496": 7956,
  "U5608": 7957,
  "U1171": 7958,
  "U10068": 7959,
  "U5942": 7960,
  "U6018": 7961,
  "U7981": 7962,
  "U5751": 7963,
  "U5833": 7964,
  "U6571": 7965,
  "U10994": 7966,
  "U10295": 7967,
  "U9984": 7968,
  "U6491": 7969,
  "U7537": 7970,
  "U11271": 7971,
  "U10140": 7972,
  "U6916": 7973,
  "U7403": 7974,
  "U8288": 7975,
  "U9985": 7976,
  "U4901": 7977,
  "U1652": 7978,
  "U7775": 7979,
  "U9505": 7980,
  "U10585": 7981,
  "U6932": 7982,
  "U7870": 7983,
  "U11208": 7984,
  "U10362": 7985,
  "U6814": 7986,
  "U5991": 7987,
  "U5905": 7988,
  "U12080": 7989,
  "U6386": 7990,
  "U6521": 7991,
  "U876": 7992,
  "U10467": 7993,
  "U2783": 7994,
  "U10047": 7995,
  "U6243": 7996,
  "U6744": 7997,
  "U6745": 7998,
  "U4583": 7999,
  "U6105": 8000,
  "U6809": 8001,
  "U7141": 8002,
  "U6095": 8003,
  "U6694": 8004,
  "U6262": 8005,
  "U5430": 8006,
  "U7031": 8007,
  "U9987": 8008,
  "U6253": 8009,
  "U6376": 8010,
  "U7077": 8011,
  "U2809": 8012,
  "U7301": 8013,
  "U9988": 8014,
  "U10014": 8015,
  "U9989": 8016,
  "U7257": 8017,
  "U7835": 8018,
  "U5517": 8019,
  "U6640": 8020,
  "U9990": 8021,
  "U9677": 8022,
  "U9550": 8023,
  "U6678": 8024,
  "U7706": 8025,
  "U9089": 8026,
  "U4237": 8027,
  "U8858": 8028,
  "U7082": 8029,
  "U6379": 8030,
  "U6857": 8031,
  "U6664": 8032,
  "U6466": 8033,
  "U8219": 8034,
  "U4222": 8035,
  "U9992": 8036,
  "U7033": 8037,
  "U6510": 8038,
  "U9782": 8039,
  "U7750": 8040,
  "U6292": 8041,
  "U4905": 8042,
  "U9994": 8043,
  "U1666": 8044,
  "U9353": 8045,
  "U6041": 8046,
  "U1779": 8047,
  "U1130": 8048,
  "U6839": 8049,
  "U6169": 8050,
  "U9586": 8051,
  "U2878": 8052,
  "U4943": 8053,
  "U1676": 8054,
  "U6121": 8055,
  "U10279": 8056,
  "U5426": 8057,
  "U11843": 8058,
  "U9820": 8059,
  "U7379": 8060,
  "U1735": 8061,
  "U6043": 8062,
  "U7735": 8063,
  "U4633": 8064,
  "U7715": 8065,
  "U6341": 8066,
  "U9625": 8067,
  "U4855": 8068,
  "U5397": 8069,
  "U7140": 8070,
  "U9760": 8071,
  "U7258": 8072,
  "U6158": 8073,
  "U1695": 8074,
  "U10000": 8075,
  "U9750": 8076,
  "U8177": 8077,
  "U9346": 8078,
  "U10001": 8079,
  "U6452": 8080,
  "U3812": 8081,
  "U8010": 8082,
  "U10002": 8083,
  "U9207": 8084,
  "U7439": 8085,
  "U5748": 8086,
  "U6441": 8087,
  "U6241": 8088,
  "U6666": 8089,
  "U10421": 8090,
  "U9475": 8091,
  "U2351": 8092,
  "U3352": 8093,
  "U7754": 8094,
  "U12162": 8095,
  "U4095": 8096,
  "U1323": 8097,
  "U4783": 8098,
  "U10012": 8099,
  "U1538": 8100,
  "U8434": 8101,
  "U4967": 8102,
  "U4401": 8103,
  "U6288": 8104,
  "U10010": 8105,
  "U9128": 8106,
  "U9717": 8107,
  "U7639": 8108,
  "U10006": 8109,
  "U1674": 8110,
  "U5709": 8111,
  "U3137": 8112,
  "U6074": 8113,
  "U7233": 8114,
  "U9624": 8115,
  "U7076": 8116,
  "U4047": 8117,
  "U8421": 8118,
  "U1797": 8119,
  "U6751": 8120,
  "U6493": 8121,
  "U11071": 8122,
  "U6212": 8123,
  "U8132": 8124,
  "U6975": 8125,
  "U4526": 8126,
  "U8413": 8127,
  "U10008": 8128,
  "U2525": 8129,
  "U8326": 8130,
  "U10144": 8131,
  "U6972": 8132,
  "U5859": 8133,
  "U8351": 8134,
  "U4629": 8135,
  "U10009": 8136,
  "U3114": 8137,
  "U3866": 8138,
  "U6716": 8139,
  "U11441": 8140,
  "U10011": 8141,
  "U2036": 8142,
  "U5727": 8143,
  "U1761": 8144,
  "U7329": 8145,
  "U7111": 8146,
  "U7410": 8147,
  "U1754": 8148,
  "U5252": 8149,
  "U10013": 8150,
  "U11099": 8151,
  "U8186": 8152,
  "U9626": 8153,
  "U7231": 8154,
  "U8854": 8155,
  "U7280": 8156,
  "U5897": 8157,
  "U6626": 8158,
  "U8472": 8159,
  "U7224": 8160,
  "U10015": 8161,
  "U7324": 8162,
  "U10016": 8163,
  "U7179": 8164,
  "U1683": 8165,
  "U2032": 8166,
  "U6746": 8167,
  "U10018": 8168,
  "U10017": 8169,
  "U10019": 8170,
  "U6505": 8171,
  "U4713": 8172,
  "U6642": 8173,
  "U9774": 8174,
  "U9563": 8175,
  "U9555": 8176,
  "U8539": 8177,
  "U10021": 8178,
  "U8125": 8179,
  "U4911": 8180,
  "U6707": 8181,
  "U7872": 8182,
  "U6636": 8183,
  "U7136": 8184,
  "U7576": 8185,
  "U6328": 8186,
  "U8464": 8187,
  "U10026": 8188,
  "U7986": 8189,
  "U5653": 8190,
  "U9113": 8191,
  "U9761": 8192,
  "U6318": 8193,
  "U8916": 8194,
  "U10027": 8195,
  "U10028": 8196,
  "U1810": 8197,
  "U6779": 8198,
  "U7321": 8199,
  "U10029": 8200,
  "U9621": 8201,
  "U10030": 8202,
  "U3966": 8203,
  "U1078": 8204,
  "U6344": 8205,
  "U4671": 8206,
  "U9146": 8207,
  "U9777": 8208,
  "U10031": 8209,
  "U7122": 8210,
  "U9805": 8211,
  "U6141": 8212,
  "U6796": 8213,
  "U5298": 8214,
  "U10033": 8215,
  "U10034": 8216,
  "U8355": 8217,
  "U11299": 8218,
  "U9784": 8219,
  "U4445": 8220,
  "U10035": 8221,
  "U7323": 8222,
  "U6704": 8223,
  "U1811": 8224,
  "U12364": 8225,
  "U10710": 8226,
  "U6006": 8227,
  "U1778": 8228,
  "U2703": 8229,
  "U6907": 8230,
  "U9667": 8231,
  "U10036": 8232,
  "U5587": 8233,
  "U7269": 8234,
  "U7937": 8235,
  "U6114": 8236,
  "U8119": 8237,
  "U4706": 8238,
  "U6959": 8239,
  "U10040": 8240,
  "U7778": 8241,
  "U7777": 8242,
  "U10041": 8243,
  "U10042": 8244,
  "U4790": 8245,
  "U7217": 8246,
  "U6726": 8247,
  "U4193": 8248,
  "U1987": 8249,
  "U11420": 8250,
  "U5930": 8251,
  "U8159": 8252,
  "U10044": 8253,
  "U4620": 8254,
  "U9732": 8255,
  "U9618": 8256,
  "U9617": 8257,
  "U4904": 8258,
  "U7305": 8259,
  "U8401": 8260,
  "U5960": 8261,
  "U946": 8262,
  "U5972": 8263,
  "U8076": 8264,
  "U8412": 8265,
  "U6826": 8266,
  "U549": 8267,
  "U8558": 8268,
  "U4976": 8269,
  "U6425": 8270,
  "U4507": 8271,
  "U5516": 8272,
  "U8451": 8273,
  "U1747": 8274,
  "U9316": 8275,
  "U7803": 8276,
  "U5779": 8277,
  "U2949": 8278,
  "U471": 8279,
  "U8058": 8280,
  "U8059": 8281,
  "U7260": 8282,
  "U7261": 8283,
  "U6801": 8284,
  "U9794": 8285,
  "U1696": 8286,
  "U8150": 8287,
  "U5399": 8288,
  "U7619": 8289,
  "U9765": 8290,
  "U7078": 8291,
  "U1724": 8292,
  "U8089": 8293,
  "U4573": 8294,
  "U7766": 8295,
  "U10048": 8296,
  "U11632": 8297,
  "U8481": 8298,
  "U8866": 8299,
  "U10050": 8300,
  "U7472": 8301,
  "U4596": 8302,
  "U10076": 8303,
  "U8802": 8304,
  "U8370": 8305,
  "U10564": 8306,
  "U7877": 8307,
  "U6486": 8308,
  "U10052": 8309,
  "U8145": 8310,
  "U7016": 8311,
  "U6464": 8312,
  "U10053": 8313,
  "U9148": 8314,
  "U6948": 8315,
  "U4405": 8316,
  "U4446": 8317,
  "U6410": 8318,
  "U10054": 8319,
  "U11310": 8320,
  "U6803": 8321,
  "U6019": 8322,
  "U8154": 8323,
  "U10056": 8324,
  "U4457": 8325,
  "U10058": 8326,
  "U8037": 8327,
  "U4865": 8328,
  "U2377": 8329,
  "U6928": 8330,
  "U10057": 8331,
  "U8061": 8332,
  "U10059": 8333,
  "U10060": 8334,
  "U6583": 8335,
  "U2561": 8336,
  "U10062": 8337,
  "U10063": 8338,
  "U10064": 8339,
  "U6864": 8340,
  "U6567": 8341,
  "U8296": 8342,
  "U8097": 8343,
  "U10067": 8344,
  "U8096": 8345,
  "U1727": 8346,
  "U3762": 8347,
  "U12387": 8348,
  "U1549": 8349,
  "U6786": 8350,
  "U6785": 8351,
  "U8925": 8352,
  "U6471": 8353,
  "U4751": 8354,
  "U7532": 8355,
  "U2946": 8356,
  "U538": 8357,
  "U10075": 8358,
  "U5502": 8359,
  "U10220": 8360,
  "U10078": 8361,
  "U6689": 8362,
  "U7980": 8363,
  "U6692": 8364,
  "U1167": 8365,
  "U10079": 8366,
  "U1736": 8367,
  "U6817": 8368,
  "U12398": 8369,
  "U10081": 8370,
  "U10082": 8371,
  "U7215": 8372,
  "U9814": 8373,
  "U9526": 8374,
  "U10084": 8375,
  "U10086": 8376,
  "U5793": 8377,
  "U7497": 8378,
  "U11047": 8379,
  "U4662": 8380,
  "U4664": 8381,
  "U10088": 8382,
  "U7051": 8383,
  "U1740": 8384,
  "U9519": 8385,
  "U1748": 8386,
  "U9731": 8387,
  "U6069": 8388,
  "U9764": 8389,
  "U9763": 8390,
  "U6242": 8391,
  "U10092": 8392,
  "U5490": 8393,
  "U8193": 8394,
  "U10097": 8395,
  "U6393": 8396,
  "U6651": 8397,
  "U5800": 8398,
  "U6773": 8399,
  "U5444": 8400,
  "U6957": 8401,
  "U4091": 8402,
  "U6748": 8403,
  "U10094": 8404,
  "U10095": 8405,
  "U6890": 8406,
  "U6891": 8407,
  "U7578": 8408,
  "U8074": 8409,
  "U9063": 8410,
  "U10102": 8411,
  "U10103": 8412,
  "U8482": 8413,
  "U7989": 8414,
  "U9642": 8415,
  "U9641": 8416,
  "U1746": 8417,
  "U10105": 8418,
  "U8065": 8419,
  "U10106": 8420,
  "U7050": 8421,
  "U10107": 8422,
  "U5753": 8423,
  "U5820": 8424,
  "U5846": 8425,
  "U715": 8426,
  "U3047": 8427,
  "U7871": 8428,
  "U10263": 8429,
  "U9797": 8430,
  "U9707": 8431,
  "U10111": 8432,
  "U10112": 8433,
  "U10113": 8434,
  "U8091": 8435,
  "U7246": 8436,
  "U8334": 8437,
  "U9812": 8438,
  "U5638": 8439,
  "U7331": 8440,
  "U8945": 8441,
  "U8944": 8442,
  "U6733": 8443,
  "U10117": 8444,
  "U10118": 8445,
  "U10119": 8446,
  "U7311": 8447,
  "U1763": 8448,
  "U8347": 8449,
  "U7183": 8450,
  "U6831": 8451,
  "U7636": 8452,
  "U9524": 8453,
  "U1622": 8454,
  "U6030": 8455,
  "U11857": 8456,
  "U6210": 8457,
  "U8188": 8458,
  "U7238": 8459,
  "U5218": 8460,
  "U8478": 8461,
  "U9701": 8462,
  "U5224": 8463,
  "U7042": 8464,
  "U8499": 8465,
  "U5360": 8466,
  "U7227": 8467,
  "U10123": 8468,
  "U10122": 8469,
  "U10126": 8470,
  "U8056": 8471,
  "U2318": 8472,
  "U7209": 8473,
  "U1768": 8474,
  "U8648": 8475,
  "U8725": 8476,
  "U10128": 8477,
  "U10129": 8478,
  "U8628": 8479,
  "U8035": 8480,
  "U8036": 8481,
  "U1755": 8482,
  "U7228": 8483,
  "U1769": 8484,
  "U10131": 8485,
  "U6852": 8486,
  "U1544": 8487,
  "U267": 8488,
  "U8210": 8489,
  "U7235": 8490,
  "U6582": 8491,
  "U5071": 8492,
  "U3384": 8493,
  "U7270": 8494,
  "U10132": 8495,
  "U4590": 8496,
  "U9423": 8497,
  "U9656": 8498,
  "U10199": 8499,
  "U5596": 8500,
  "U6775": 8501,
  "U10134": 8502,
  "U6299": 8503,
  "U8057": 8504,
  "U10222": 8505,
  "U8342": 8506,
  "U6937": 8507,
  "U676": 8508,
  "U7891": 8509,
  "U7333": 8510,
  "U6738": 8511,
  "U8042": 8512,
  "U1838": 8513,
  "U7208": 8514,
  "U1787": 8515,
  "U4359": 8516,
  "U6900": 8517,
  "U9718": 8518,
  "U9719": 8519,
  "U7426": 8520,
  "U136": 8521,
  "U8490": 8522,
  "U1659": 8523,
  "U8571": 8524,
  "U8208": 8525,
  "U5840": 8526,
  "U10189": 8527,
  "U10226": 8528,
  "U7946": 8529,
  "U11293": 8530,
  "U7312": 8531,
  "U5737": 8532,
  "U5705": 8533,
  "U719": 8534,
  "U10145": 8535,
  "U8158": 8536,
  "U8494": 8537,
  "U512": 8538,
  "U1835": 8539,
  "U10146": 8540,
  "U1839": 8541,
  "U8533": 8542,
  "U7319": 8543,
  "U10339": 8544,
  "U438": 8545,
  "U1842": 8546,
  "U1298": 8547,
  "U10315": 8548,
  "U7315": 8549,
  "U1872": 8550,
  "U2297": 8551,
  "U1884": 8552,
  "U1604": 8553,
  "U1898": 8554,
  "U1231": 8555,
  "U1620": 8556,
  "U1922": 8557,
  "U1793": 8558,
  "U2197": 8559,
  "U2048": 8560,
  "U1943": 8561,
  "U1668": 8562,
  "U2141": 8563,
  "U2126": 8564,
  "U8199": 8565,
  "U2214": 8566,
  "U8221": 8567,
  "U2391": 8568,
  "U10242": 8569,
  "U8243": 8570,
  "U4798": 8571,
  "U7049": 8572,
  "U8269": 8573,
  "U10150": 8574,
  "U2502": 8575,
  "U6848": 8576,
  "U6849": 8577,
  "U2566": 8578,
  "U2806": 8579,
  "U2422": 8580,
  "U2737": 8581,
  "U10152": 8582,
  "U2803": 8583,
  "U2948": 8584,
  "U2506": 8585,
  "U2977": 8586,
  "U3156": 8587,
  "U2535": 8588,
  "U10153": 8589,
  "U2605": 8590,
  "U189": 8591,
  "U6671": 8592,
  "U10154": 8593,
  "U3201": 8594,
  "U3196": 8595,
  "U10155": 8596,
  "U10156": 8597,
  "U3895": 8598,
  "U3147": 8599,
  "U10157": 8600,
  "U6898": 8601,
  "U7079": 8602,
  "U3371": 8603,
  "U7072": 8604,
  "U2992": 8605,
  "U8261": 8606,
  "U1850": 8607,
  "U2378": 8608,
  "U8503": 8609,
  "U4296": 8610,
  "U10159": 8611,
  "U10160": 8612,
  "U104": 8613,
  "U8871": 8614,
  "U4112": 8615,
  "U5792": 8616,
  "U3632": 8617,
  "U7631": 8618,
  "U3128": 8619,
  "U1630": 8620,
  "U8033": 8621,
  "U4761": 8622,
  "U4658": 8623,
  "U10162": 8624,
  "U8270": 8625,
  "U10163": 8626,
  "U8985": 8627,
  "U6564": 8628,
  "U7230": 8629,
  "U3884": 8630,
  "U10164": 8631,
  "U10165": 8632,
  "U1595": 8633,
  "U4836": 8634,
  "U9250": 8635,
  "U10169": 8636,
  "U4696": 8637,
  "U1617": 8638,
  "U10170": 8639,
  "U4649": 8640,
  "U3952": 8641,
  "U4248": 8642,
  "U4219": 8643,
  "U10332": 8644,
  "U1456": 8645,
  "U4586": 8646,
  "U4899": 8647,
  "U5131": 8648,
  "U10171": 8649,
  "U9228": 8650,
  "U3751": 8651,
  "U9259": 8652,
  "U10173": 8653,
  "U5274": 8654,
  "U4017": 8655,
  "U10174": 8656,
  "U8555": 8657,
  "U5334": 8658,
  "U4707": 8659,
  "U3921": 8660,
  "U10176": 8661,
  "U10177": 8662,
  "U10180": 8663,
  "U7641": 8664,
  "U10178": 8665,
  "U10179": 8666,
  "U5791": 8667,
  "U5229": 8668,
  "U6363": 8669,
  "U5799": 8670,
  "U5058": 8671,
  "U7538": 8672,
  "U10182": 8673,
  "U3181": 8674,
  "U5588": 8675,
  "U7120": 8676,
  "U5290": 8677,
  "U3898": 8678,
  "U10221": 8679,
  "U1305": 8680,
  "U10354": 8681,
  "U10188": 8682,
  "U6545": 8683,
  "U2794": 8684,
  "U5910": 8685,
  "U10191": 8686,
  "U10192": 8687,
  "U6548": 8688,
  "U10194": 8689,
  "U4739": 8690,
  "U6375": 8691,
  "U10195": 8692,
  "U7268": 8693,
  "U5246": 8694,
  "U5858": 8695,
  "U9279": 8696,
  "U9536": 8697,
  "U10201": 8698,
  "U10200": 8699,
  "U6618": 8700,
  "U5634": 8701,
  "U5990": 8702,
  "U7697": 8703,
  "U5461": 8704,
  "U6067": 8705,
  "U9525": 8706,
  "U7253": 8707,
  "U7252": 8708,
  "U2933": 8709,
  "U7934": 8710,
  "U10207": 8711,
  "U10205": 8712,
  "U7823": 8713,
  "U5804": 8714,
  "U10208": 8715,
  "U4619": 8716,
  "U11758": 8717,
  "U4959": 8718,
  "U4789": 8719,
  "U10211": 8720,
  "U10212": 8721,
  "U10213": 8722,
  "U6498": 8723,
  "U1859": 8724,
  "U7653": 8725,
  "U10215": 8726,
  "U10216": 8727,
  "U10300": 8728,
  "U2941": 8729,
  "U7107": 8730,
  "U7109": 8731,
  "U8534": 8732,
  "U10217": 8733,
  "U7117": 8734,
  "U3756": 8735,
  "U6414": 8736,
  "U10218": 8737,
  "U10219": 8738,
  "U10282": 8739,
  "U10267": 8740,
  "U9715": 8741,
  "U10227": 8742,
  "U6172": 8743,
  "U6780": 8744,
  "U8331": 8745,
  "U6430": 8746,
  "U6431": 8747,
  "U9619": 8748,
  "U5719": 8749,
  "U10230": 8750,
  "U10231": 8751,
  "U10232": 8752,
  "U6094": 8753,
  "U9703": 8754,
  "U9704": 8755,
  "U8394": 8756,
  "U8395": 8757,
  "U10235": 8758,
  "U10234": 8759,
  "U10236": 8760,
  "U10237": 8761,
  "U4288": 8762,
  "U10238": 8763,
  "U10240": 8764,
  "U4228": 8765,
  "U10241": 8766,
  "U6488": 8767,
  "U9661": 8768,
  "U6889": 8769,
  "U7628": 8770,
  "U10246": 8771,
  "U1392": 8772,
  "U10360": 8773,
  "U3798": 8774,
  "U10248": 8775,
  "U10268": 8776,
  "U10250": 8777,
  "U1750": 8778,
  "U10251": 8779,
  "U10257": 8780,
  "U3456": 8781,
  "U6137": 8782,
  "U6136": 8783,
  "U10254": 8784,
  "U10258": 8785,
  "U9692": 8786,
  "U10260": 8787,
  "U10261": 8788,
  "U10441": 8789,
  "U10264": 8790,
  "U7202": 8791,
  "U7203": 8792,
  "U9653": 8793,
  "U6150": 8794,
  "U10265": 8795,
  "U9730": 8796,
  "U9729": 8797,
  "U8023": 8798,
  "U5266": 8799,
  "U10269": 8800,
  "U1338": 8801,
  "U6646": 8802,
  "U8236": 8803,
  "U9708": 8804,
  "U6408": 8805,
  "U8050": 8806,
  "U7034": 8807,
  "U7035": 8808,
  "U10272": 8809,
  "U10273": 8810,
  "U10274": 8811,
  "U8092": 8812,
  "U8028": 8813,
  "U10275": 8814,
  "U3518": 8815,
  "U7988": 8816,
  "U7987": 8817,
  "U7057": 8818,
  "U8239": 8819,
  "U7156": 8820,
  "U7155": 8821,
  "U4960": 8822,
  "U2985": 8823,
  "U10436": 8824,
  "U10281": 8825,
  "U4257": 8826,
  "U8504": 8827,
  "U10283": 8828,
  "U10284": 8829,
  "U8471": 8830,
  "U4509": 8831,
  "U2274": 8832,
  "U10285": 8833,
  "U10286": 8834,
  "U10287": 8835,
  "U10288": 8836,
  "U10289": 8837,
  "U7978": 8838,
  "U9778": 8839,
  "U9779": 8840,
  "U3953": 8841,
  "U10292": 8842,
  "U10293": 8843,
  "U7126": 8844,
  "U8204": 8845,
  "U6439": 8846,
  "U8390": 8847,
  "U8391": 8848,
  "U10296": 8849,
  "U10297": 8850,
  "U6579": 8851,
  "U8469": 8852,
  "U10301": 8853,
  "U9700": 8854,
  "U10303": 8855,
  "U10304": 8856,
  "U3876": 8857,
  "U7971": 8858,
  "U5237": 8859,
  "U9722": 8860,
  "U10317": 8861,
  "U10310": 8862,
  "U7164": 8863,
  "U7165": 8864,
  "U7223": 8865,
  "U7219": 8866,
  "U10316": 8867,
  "U1820": 8868,
  "U6917": 8869,
  "U8502": 8870,
  "U10322": 8871,
  "U10323": 8872,
  "U1822": 8873,
  "U6923": 8874,
  "U7300": 8875,
  "U8259": 8876,
  "U10397": 8877,
  "U1537": 8878,
  "U8095": 8879,
  "U8094": 8880,
  "U10399": 8881,
  "U1596": 8882,
  "U5680": 8883,
  "U1665": 8884,
  "U10328": 8885,
  "U7229": 8886,
  "U10329": 8887,
  "U7282": 8888,
  "U10330": 8889,
  "U750": 8890,
  "U10331": 8891,
  "U8372": 8892,
  "U8446": 8893,
  "U6672": 8894,
  "U10483": 8895,
  "U808": 8896,
  "U6683": 8897,
  "U1760": 8898,
  "U8572": 8899,
  "U7342": 8900,
  "U9214": 8901,
  "U1601": 8902,
  "U2251": 8903,
  "U3091": 8904,
  "U1151": 8905,
  "U8541": 8906,
  "U10336": 8907,
  "U2278": 8908,
  "U3010": 8909,
  "U2841": 8910,
  "U6585": 8911,
  "U10338": 8912,
  "U3278": 8913,
  "U10341": 8914,
  "U2800": 8915,
  "U9513": 8916,
  "U3320": 8917,
  "U4430": 8918,
  "U10345": 8919,
  "U4163": 8920,
  "U1664": 8921,
  "U7665": 8922,
  "U4317": 8923,
  "U2922": 8924,
  "U5997": 8925,
  "U7724": 8926,
  "U10347": 8927,
  "U8431": 8928,
  "U5061": 8929,
  "U10349": 8930,
  "U1106": 8931,
  "U9297": 8932,
  "U7667": 8933,
  "U8622": 8934,
  "U9735": 8935,
  "U9736": 8936,
  "U4882": 8937,
  "U4903": 8938,
  "U4611": 8939,
  "U5422": 8940,
  "U10353": 8941,
  "U7951": 8942,
  "U5764": 8943,
  "U9477": 8944,
  "U7199": 8945,
  "U10356": 8946,
  "U7295": 8947,
  "U10358": 8948,
  "U10359": 8949,
  "U7940": 8950,
  "U7092": 8951,
  "U6992": 8952,
  "U7272": 8953,
  "U6024": 8954,
  "U1447": 8955,
  "U8388": 8956,
  "U8389": 8957,
  "U10366": 8958,
  "U9674": 8959,
  "U9325": 8960,
  "U7830": 8961,
  "U5888": 8962,
  "U10372": 8963,
  "U10373": 8964,
  "U1561": 8965,
  "U9377": 8966,
  "U10375": 8967,
  "U10376": 8968,
  "U10377": 8969,
  "U10481": 8970,
  "U7976": 8971,
  "U10380": 8972,
  "U8109": 8973,
  "U8108": 8974,
  "U8512": 8975,
  "U10385": 8976,
  "U10384": 8977,
  "U10386": 8978,
  "U1399": 8979,
  "U10389": 8980,
  "U10390": 8981,
  "U10393": 8982,
  "U10395": 8983,
  "U8116": 8984,
  "U10396": 8985,
  "U7955": 8986,
  "U9528": 8987,
  "U10402": 8988,
  "U10401": 8989,
  "U10404": 8990,
  "U10407": 8991,
  "U10408": 8992,
  "U7869": 8993,
  "U10416": 8994,
  "U2171": 8995,
  "U8068": 8996,
  "U7193": 8997,
  "U10415": 8998,
  "U10417": 8999,
  "U7985": 9000,
  "U7966": 9001,
  "U10419": 9002,
  "U10420": 9003,
  "U10422": 9004,
  "U7062": 9005,
  "U5347": 9006,
  "U5470": 9007,
  "U10428": 9008,
  "U9647": 9009,
  "U9648": 9010,
  "U10429": 9011,
  "U6850": 9012,
  "U10431": 9013,
  "U10433": 9014,
  "U8155": 9015,
  "U8249": 9016,
  "U12331": 9017,
  "U9772": 9018,
  "U10445": 9019,
  "U7123": 9020,
  "U8542": 9021,
  "U10446": 9022,
  "U6467": 9023,
  "U8025": 9024,
  "U10451": 9025,
  "U6941": 9026,
  "U1759": 9027,
  "U8418": 9028,
  "U10452": 9029,
  "U9568": 9030,
  "U10454": 9031,
  "U1791": 9032,
  "U8045": 9033,
  "U10457": 9034,
  "U7299": 9035,
  "U10463": 9036,
  "U8456": 9037,
  "U1629": 9038,
  "U1756": 9039,
  "U8142": 9040,
  "U8484": 9041,
  "U1619": 9042,
  "U10477": 9043,
  "U10482": 9044,
  "U7296": 9045,
  "U8532": 9046,
  "U10485": 9047,
  "U8226": 9048
 },
 "src_domain": {
  "DOM1": 9049,
  "C936": 9050,
  "C1669": 9051,
  "C1731": 9052,
  "?": 9053,
  "DOM3": 9054,
  "DOM15": 9055,
  "C832": 9056,
  "C1747": 9057,
  "C14945": 9058,
  "C1679": 9059,
  "C1700": 9060,
  "C1596": 9061,
  "C1984": 9062,
  "C1665": 9063,
  "C155": 9064,
  "C2769": 9065,
  "C1946": 9066,
  "DOM5": 9067,
  "C5828": 9068,
  "C4907": 9069,
  "C14483": 9070,
  "C2186": 9071,
  "C1871": 9072,
  "C1644": 9073,
  "DOM9": 9074,
  "C2625": 9075,
  "C6336": 9076,
  "C6580": 9077,
  "C11307": 9078,
  "C12652": 9079,
  "C4554": 9080,
  "C2010": 9081,
  "C1681": 9082,
  "C3547": 9083,
  "C1678": 9084,
  "C1928": 9085,
  "C11445": 9086,
  "C631": 9087,
  "C1624": 9088,
  "C2148": 9089,
  "C2825": 9090,
  "C3042": 9091,
  "C1929": 9092,
  "C2032": 9093,
  "C13503": 9094,
  "C1045": 9095,
  "C6163": 9096,
  "C565": 9097,
  "C2472": 9098,
  "C3176": 9099,
  "C3227": 9100,
  "C12425": 9101,
  "C3058": 9102,
  "C20347": 9103,
  "C2882": 9104,
  "C1153": 9105,
  "C3140": 9106,
  "C2631": 9107,
  "DOM80": 9108,
  "C2125": 9109,
  "C1152": 9110,
  "C20653": 9111,
  "C2626": 9112,
  "C2137": 9113,
  "C6062": 9114,
  "C1723": 9115,
  "C308": 9116,
  "C18756": 9117,
  "C2866": 9118,
  "lanl.gov": 9119,
  "DOM16": 9120,
  "C4804": 9121,
  "C20791": 9122,
  "DOM21": 9123,
  "C4009": 9124,
  "C1702": 9125,
  "DOM77": 9126,
  "C10874": 9127,
  "C11827": 9128,
  "C3370": 9129,
  "C2951": 9130,
  "C4104": 9131,
  "C10054": 9132,
  "C12759": 9133,
  "C4025": 9134,
  "C5037": 9135,
  "C1252": 9136,
  "C18381": 9137,
  "C10218": 9138,
  "C3245": 9139,
  "C9152": 9140,
  "C13911": 9141,
  "C15659": 9142,
  "C4666": 9143,
  "DOM78": 9144,
  "C13252": 9145,
  "DOM23": 9146,
  "C13444": 9147,
  "C14429": 9148,
  "C3084": 9149,
  "C3720": 9150,
  "C14880": 9151,
  "DOM37": 9152,
  "C16322": 9153,
  "C2519": 9154,
  "C2021": 9155,
  "C7024": 9156,
  "C5880": 9157,
  "DOM67": 9158,
  "C13717": 9159,
  "DOM8": 9160,
  "C2436": 9161,
  "C753": 9162,
  "C21366": 9163,
  "C2382": 9164,
  "C21448": 9165,
  "C6064": 9166,
  "C6535": 9167,
  "C972": 9168,
  "C21668": 9169,
  "C22091": 9170
 },
 "dst_user": {
  "U102": 9171,
  "C988": 9172,
  "U175": 9173,
  "U22": 9174,
  "U2460": 9175,
  "U3321": 9176,
  "U3532": 9177,
  "U211": 9178,
  "U36": 9179,
  "U394": 9180,
  "U4617": 9181,
  "U4806": 9182,
  "U5099": 9183,
  "U5233": 9184,
  "U52": 9185,
  "U5393": 9186,
  "U6039": 9187,
  "U6438": 9188,
  "C1669": 9189,
  "U65": 9190,
  "U66": 9191,
  "U7420": 9192,
  "C1727": 9193,
  "U78": 9194,
  "U7948": 9195,
  "C1731": 9196,
  "U79": 9197,
  "U7": 9198,
  "U8547": 9199,
  "C1786": 9200,
  "U90": 9201,
  "U963": 9202,
  "U9649": 9203,
  "U101": 9204,
  "U1067": 9205,
  "U113": 9206,
  "U1431": 9207,
  "C625": 9208,
  "U147": 9209,
  "U15": 9210,
  "C523": 9211,
  "C553": 9212,
  "U1788": 9213,
  "C1484": 9214,
  "U198": 9215,
  "U19": 9216,
  "U1": 9217,
  "U3": 9218,
  "U20": 9219,
  "U25": 9220,
  "U23": 9221,
  "U24": 9222,
  "U2404": 9223,
  "U21": 9224,
  "U26": 9225,
  "U2789": 9226,
  "U27": 9227,
  "U77": 9228,
  "U2842": 9229,
  "U292": 9230,
  "U30": 9231,
  "C815": 9232,
  "U32": 9233,
  "U3630": 9234,
  "U3849": 9235,
  "U415": 9236,
  "U4196": 9237,
  "SYSTEM": 9238,
  "C15520": 9239,
  "U4695": 9240,
  "U48": 9241,
  "U491": 9242,
  "U4": 9243,
  "U516": 9244,
  "U5171": 9245,
  "C1634": 9246,
  "U59": 9247,
  "U608": 9248,
  "U63": 9249,
  "U6447": 9250,
  "U6": 9251,
  "U732": 9252,
  "U73": 9253,
  "C1719": 9254,
  "C1848": 9255,
  "U811": 9256,
  "U86": 9257,
  "U8813": 9258,
  "U88": 9259,
  "U898": 9260,
  "U8": 9261,
  "C1785": 9262,
  "U926": 9263,
  "U107": 9264,
  "U10": 9265,
  "U1195": 9266,
  "U12": 9267,
  "U1366": 9268,
  "U13": 9269,
  "U14": 9270,
  "U1651": 9271,
  "U16": 9272,
  "C1085": 9273,
  "U1782": 9274,
  "U2198": 9275,
  "U2483": 9276,
  "U3116": 9277,
  "U3526": 9278,
  "U35": 9279,
  "U3852": 9280,
  "U396": 9281,
  "U424": 9282,
  "U42": 9283,
  "U4535": 9284,
  "U4610": 9285,
  "U4850": 9286,
  "U5": 9287,
  "U5160": 9288,
  "U5276": 9289,
  "U5710": 9290,
  "U6276": 9291,
  "U631": 9292,
  "U6897": 9293,
  "U7021": 9294,
  "U7115": 9295,
  "U71": 9296,
  "U793": 9297,
  "U8480": 9298,
  "U87": 9299,
  "C1772": 9300,
  "C586": 9301,
  "U2097": 9302,
  "U2205": 9303,
  "U2248": 9304,
  "U2256": 9305,
  "U2453": 9306,
  "U2": 9307,
  "U3084": 9308,
  "U31": 9309,
  "U34": 9310,
  "U5184": 9311,
  "U7178": 9312,
  "U7844": 9313,
  "U8406": 9314,
  "U9273": 9315,
  "U9652": 9316,
  "U9": 9317,
  "U54": 9318,
  "U53": 9319,
  "U1187": 9320,
  "U1325": 9321,
  "U304": 9322,
  "U3294": 9323,
  "U367": 9324,
  "U3739": 9325,
  "U3861": 9326,
  "U4008": 9327,
  "U4141": 9328,
  "U4345": 9329,
  "U43": 9330,
  "U442": 9331,
  "C217": 9332,
  "U6215": 9333,
  "U7912": 9334,
  "U795": 9335,
  "U7965": 9336,
  "U9310": 9337,
  "U9373": 9338,
  "U94": 9339,
  "U1155": 9340,
  "U11": 9341,
  "U1283": 9342,
  "U1411": 9343,
  "U180": 9344,
  "U2599": 9345,
  "U301": 9346,
  "U3439": 9347,
  "U3643": 9348,
  "U4252": 9349,
  "U4581": 9350,
  "U495": 9351,
  "U5651": 9352,
  "U7054": 9353,
  "U7186": 9354,
  "U726": 9355,
  "U7609": 9356,
  "U7893": 9357,
  "U8320": 9358,
  "U9027": 9359,
  "U945": 9360,
  "U1117": 9361,
  "U119": 9362,
  "U2766": 9363,
  "U3019": 9364,
  "U3195": 9365,
  "C832": 9366,
  "U4424": 9367,
  "U47": 9368,
  "U5129": 9369,
  "U6163": 9370,
  "U667": 9371,
  "U7539": 9372,
  "U9155": 9373,
  "U9235": 9374,
  "U103": 9375,
  "U1377": 9376,
  "U1469": 9377,
  "U157": 9378,
  "U2322": 9379,
  "U3553": 9380,
  "U4057": 9381,
  "U4130": 9382,
  "U4856": 9383,
  "U5164": 9384,
  "U5428": 9385,
  "U560": 9386,
  "U571": 9387,
  "U6168": 9388,
  "U6378": 9389,
  "U7221": 9390,
  "U75": 9391,
  "U824": 9392,
  "C1747": 9393,
  "U83": 9394,
  "U8929": 9395,
  "U129": 9396,
  "U4180": 9397,
  "U6676": 9398,
  "U6706": 9399,
  "U6743": 9400,
  "U9557": 9401,
  "U2143": 9402,
  "U2193": 9403,
  "U2899": 9404,
  "U3265": 9405,
  "U33": 9406,
  "U3597": 9407,
  "U4287": 9408,
  "U4495": 9409,
  "U4772": 9410,
  "U530": 9411,
  "U5702": 9412,
  "U61": 9413,
  "U6560": 9414,
  "U6668": 9415,
  "U69": 9416,
  "U68": 9417,
  "U76": 9418,
  "U838": 9419,
  "U8999": 9420,
  "U9292": 9421,
  "U1854": 9422,
  "U199": 9423,
  "U2066": 9424,
  "U2366": 9425,
  "U3432": 9426,
  "U3696": 9427,
  "U3841": 9428,
  "U4456": 9429,
  "U4674": 9430,
  "C1152": 9431,
  "U4936": 9432,
  "U5419": 9433,
  "U7626": 9434,
  "U9532": 9435,
  "U1050": 9436,
  "U149": 9437,
  "U1529": 9438,
  "U172": 9439,
  "U1950": 9440,
  "U2265": 9441,
  "U2449": 9442,
  "U2991": 9443,
  "U3003": 9444,
  "U4638": 9445,
  "U46": 9446,
  "U6291": 9447,
  "U6354": 9448,
  "U7353": 9449,
  "U7719": 9450,
  "U846": 9451,
  "U909": 9452,
  "U9120": 9453,
  "U9126": 9454,
  "U9623": 9455,
  "U108": 9456,
  "U1308": 9457,
  "U155": 9458,
  "U156": 9459,
  "U158": 9460,
  "U159": 9461,
  "U160": 9462,
  "U2919": 9463,
  "U3958": 9464,
  "U4285": 9465,
  "U432": 9466,
  "U6142": 9467,
  "U6359": 9468,
  "U70": 9469,
  "U7304": 9470,
  "U74": 9471,
  "U7528": 9472,
  "U8457": 9473,
  "U9087": 9474,
  "U9456": 9475,
  "U1172": 9476,
  "U17": 9477,
  "U206": 9478,
  "U2971": 9479,
  "U3664": 9480,
  "U3771": 9481,
  "U4223": 9482,
  "U4403": 9483,
  "U4795": 9484,
  "U4952": 9485,
  "U5187": 9486,
  "U5189": 9487,
  "U7865": 9488,
  "C1710": 9489,
  "U2962": 9490,
  "U41": 9491,
  "U453": 9492,
  "U4725": 9493,
  "U6445": 9494,
  "U730": 9495,
  "U8294": 9496,
  "U8556": 9497,
  "U9190": 9498,
  "U9319": 9499,
  "U9351": 9500,
  "U9481": 9501,
  "U1094": 9502,
  "U1101": 9503,
  "U1150": 9504,
  "U1733": 9505,
  "U2554": 9506,
  "U2637": 9507,
  "U3154": 9508,
  "U3218": 9509,
  "U401": 9510,
  "U4708": 9511,
  "U5524": 9512,
  "U8909": 9513,
  "U111": 9514,
  "U1214": 9515,
  "U2338": 9516,
  "U256": 9517,
  "U2643": 9518,
  "U341": 9519,
  "U6553": 9520,
  "U8695": 9521,
  "U2195": 9522,
  "U2765": 9523,
  "U3525": 9524,
  "U4639": 9525,
  "U537": 9526,
  "U5486": 9527,
  "U584": 9528,
  "U7151": 9529,
  "U72": 9530,
  "U818": 9531,
  "U890": 9532,
  "U1282": 9533,
  "U1486": 9534,
  "U2447": 9535,
  "U4076": 9536,
  "U5834": 9537,
  "C561": 9538,
  "U8176": 9539,
  "C3524": 9540,
  "U125": 9541,
  "U343": 9542,
  "U3747": 9543,
  "U4559": 9544,
  "U5294": 9545,
  "U6502": 9546,
  "U6527": 9547,
  "U7488": 9548,
  "U767": 9549,
  "U9792": 9550,
  "C1984": 9551,
  "U123": 9552,
  "U1491": 9553,
  "U1528": 9554,
  "U2064": 9555,
  "U238": 9556,
  "U3534": 9557,
  "U467": 9558,
  "U5520": 9559,
  "U5565": 9560,
  "U642": 9561,
  "U813": 9562,
  "U93": 9563,
  "U1124": 9564,
  "U124": 9565,
  "U1356": 9566,
  "U1451": 9567,
  "U5698": 9568,
  "U5901": 9569,
  "U6534": 9570,
  "U1723": 9571,
  "C1972": 9572,
  "U202": 9573,
  "U2727": 9574,
  "NETWORK SERVICE": 9575,
  "U3373": 9576,
  "U3491": 9577,
  "U37": 9578,
  "U574": 9579,
  "U617": 9580,
  "U636": 9581,
  "U6865": 9582,
  "U973": 9583,
  "U1024": 9584,
  "U1096": 9585,
  "U3624": 9586,
  "U4665": 9587,
  "U5119": 9588,
  "U6000": 9589,
  "U7222": 9590,
  "U769": 9591,
  "U8751": 9592,
  "U958": 9593,
  "U1918": 9594,
  "U2995": 9595,
  "U4356": 9596,
  "U5886": 9597,
  "U6984": 9598,
  "U7417": 9599,
  "U741": 9600,
  "U8960": 9601,
  "U1244": 9602,
  "U1342": 9603,
  "U214": 9604,
  "U2250": 9605,
  "U3682": 9606,
  "U49": 9607,
  "U5659": 9608,
  "U7489": 9609,
  "U7623": 9610,
  "U7774": 9611,
  "U849": 9612,
  "U1375": 9613,
  "U3487": 9614,
  "U3646": 9615,
  "U4374": 9616,
  "U668": 9617,
  "U798": 9618,
  "U222": 9619,
  "U259": 9620,
  "U260": 9621,
  "U261": 9622,
  "U262": 9623,
  "U3303": 9624,
  "U4719": 9625,
  "U5210": 9626,
  "U6552": 9627,
  "U880": 9628,
  "U9174": 9629,
  "U9391": 9630,
  "U9478": 9631,
  "U10473": 9632,
  "U161": 9633,
  "U4918": 9634,
  "U5000": 9635,
  "U6220": 9636,
  "U7880": 9637,
  "U8769": 9638,
  "U932": 9639,
  "U9629": 9640,
  "U4061": 9641,
  "U423": 9642,
  "U6319": 9643,
  "U8870": 9644,
  "U176": 9645,
  "U1809": 9646,
  "U1825": 9647,
  "U3802": 9648,
  "U4096": 9649,
  "U5782": 9650,
  "U7712": 9651,
  "U962": 9652,
  "U626": 9653,
  "U3282": 9654,
  "U8027": 9655,
  "U2997": 9656,
  "U5974": 9657,
  "U6211": 9658,
  "U8016": 9659,
  "U9527": 9660,
  "U208": 9661,
  "U2895": 9662,
  "U9021": 9663,
  "U9142": 9664,
  "U5525": 9665,
  "U523": 9666,
  "U6166": 9667,
  "U7694": 9668,
  "U8087": 9669,
  "U1137": 9670,
  "U1321": 9671,
  "U1490": 9672,
  "U2407": 9673,
  "U3099": 9674,
  "U679": 9675,
  "U1847": 9676,
  "U2039": 9677,
  "U2822": 9678,
  "U4523": 9679,
  "U6251": 9680,
  "U9485": 9681,
  "U11025": 9682,
  "U1592": 9683,
  "C1570": 9684,
  "U1642": 9685,
  "U1721": 9686,
  "U833": 9687,
  "U9376": 9688,
  "U10271": 9689,
  "U12104": 9690,
  "U3538": 9691,
  "U5547": 9692,
  "U7134": 9693,
  "U952": 9694,
  "U1052": 9695,
  "U1365": 9696,
  "U3511": 9697,
  "U4204": 9698,
  "U8343": 9699,
  "U8455": 9700,
  "U9099": 9701,
  "U109": 9702,
  "U229": 9703,
  "U4922": 9704,
  "U912": 9705,
  "U9344": 9706,
  "U1405": 9707,
  "U5724": 9708,
  "U6364": 9709,
  "C486": 9710,
  "U244": 9711,
  "U258": 9712,
  "U2751": 9713,
  "U3753": 9714,
  "U4216": 9715,
  "U4997": 9716,
  "U50": 9717,
  "U5554": 9718,
  "U6084": 9719,
  "U7374": 9720,
  "U200": 9721,
  "U2436": 9722,
  "U3611": 9723,
  "U5018": 9724,
  "U6946": 9725,
  "U861": 9726,
  "U1066": 9727,
  "U1349": 9728,
  "U1627": 9729,
  "U2497": 9730,
  "U2866": 9731,
  "U342": 9732,
  "U4246": 9733,
  "U5312": 9734,
  "U2863": 9735,
  "U4684": 9736,
  "U6623": 9737,
  "U3292": 9738,
  "U5113": 9739,
  "U7452": 9740,
  "U9079": 9741,
  "U1316": 9742,
  "U2473": 9743,
  "U3073": 9744,
  "U3457": 9745,
  "U4173": 9746,
  "U4524": 9747,
  "U6766": 9748,
  "U7927": 9749,
  "U3148": 9750,
  "U3974": 9751,
  "U581": 9752,
  "U9003": 9753,
  "U9483": 9754,
  "U9646": 9755,
  "U7387": 9756,
  "U11242": 9757,
  "U197": 9758,
  "U2390": 9759,
  "U329": 9760,
  "U1589": 9761,
  "U8559": 9762,
  "U8756": 9763,
  "U9776": 9764,
  "U1776": 9765,
  "U306": 9766,
  "U7482": 9767,
  "U205": 9768,
  "U3162": 9769,
  "U3727": 9770,
  "U3858": 9771,
  "U7730": 9772,
  "U1631": 9773,
  "U5803": 9774,
  "U9745": 9775,
  "U1292": 9776,
  "U1963": 9777,
  "U6412": 9778,
  "U839": 9779,
  "U8560": 9780,
  "U1230": 9781,
  "U2614": 9782,
  "U3633": 9783,
  "U183": 9784,
  "U1179": 9785,
  "U210": 9786,
  "U2345": 9787,
  "U240": 9788,
  "U7010": 9789,
  "U1509": 9790,
  "U391": 9791,
  "C2472": 9792,
  "U9636": 9793,
  "U1610": 9794,
  "U279": 9795,
  "U5191": 9796,
  "U1003": 9797,
  "U1198": 9798,
  "U2424": 9799,
  "U5069": 9800,
  "U6870": 9801,
  "U1163": 9802,
  "U4845": 9803,
  "U5585": 9804,
  "U5975": 9805,
  "U9576": 9806,
  "U1408": 9807,
  "U1902": 9808,
  "U4313": 9809,
  "U5512": 9810,
  "U7602": 9811,
  "U1829": 9812,
  "U6983": 9813,
  "U3249": 9814,
  "U5843": 9815,
  "U194": 9816,
  "C1703": 9817,
  "U227": 9818,
  "U2964": 9819,
  "U4499": 9820,
  "U5150": 9821,
  "U5704": 9822,
  "U9520": 9823,
  "U1908": 9824,
  "U2045": 9825,
  "U2364": 9826,
  "U768": 9827,
  "U234": 9828,
  "U2602": 9829,
  "U2668": 9830,
  "U4693": 9831,
  "U10476": 9832,
  "U3032": 9833,
  "U7857": 9834,
  "U8721": 9835,
  "U5235": 9836,
  "U5932": 9837,
  "U6568": 9838,
  "U928": 9839,
  "U7192": 9840,
  "U4357": 9841,
  "U6935": 9842,
  "U8596": 9843,
  "U9199": 9844,
  "U1021": 9845,
  "U494": 9846,
  "U5144": 9847,
  "U6092": 9848,
  "C15648": 9849,
  "U757": 9850,
  "U1877": 9851,
  "U3069": 9852,
  "U5684": 9853,
  "U8730": 9854,
  "U8973": 9855,
  "U6551": 9856,
  "U739": 9857,
  "U7551": 9858,
  "U577": 9859,
  "U1832": 9860,
  "U3098": 9861,
  "U6072": 9862,
  "U6490": 9863,
  "U995": 9864,
  "U1353": 9865,
  "U5546": 9866,
  "U6087": 9867,
  "U9687": 9868,
  "U10969": 9869,
  "U4847": 9870,
  "U7007": 9871,
  "U9441": 9872,
  "U248": 9873,
  "U4675": 9874,
  "U6333": 9875,
  "U720": 9876,
  "U9417": 9877,
  "U4144": 9878,
  "C2083": 9879,
  "U461": 9880,
  "U6569": 9881,
  "U935": 9882,
  "U2046": 9883,
  "U257": 9884,
  "U7205": 9885,
  "U8724": 9886,
  "U9340": 9887,
  "U8233": 9888,
  "U162": 9889,
  "U2229": 9890,
  "U878": 9891,
  "U115": 9892,
  "U5414": 9893,
  "U7566": 9894,
  "U18": 9895,
  "U3445": 9896,
  "U7669": 9897,
  "U9186": 9898,
  "U1734": 9899,
  "U2581": 9900,
  "U902": 9901,
  "U3790": 9902,
  "U4266": 9903,
  "U5134": 9904,
  "U5181": 9905,
  "U5471": 9906,
  "U6146": 9907,
  "U3740": 9908,
  "U4896": 9909,
  "U522": 9910,
  "U7450": 9911,
  "U98": 9912,
  "U11483": 9913,
  "U3923": 9914,
  "U609": 9915,
  "U95": 9916,
  "U3204": 9917,
  "U3332": 9918,
  "U3427": 9919,
  "U8886": 9920,
  "U1129": 9921,
  "U1390": 9922,
  "U310": 9923,
  "U8149": 9924,
  "U1993": 9925,
  "U2833": 9926,
  "U5067": 9927,
  "U5368": 9928,
  "U5477": 9929,
  "U4340": 9930,
  "U6395": 9931,
  "U1934": 9932,
  "U2266": 9933,
  "U3211": 9934,
  "U5658": 9935,
  "U242": 9936,
  "U4274": 9937,
  "U4423": 9938,
  "U4745": 9939,
  "U6371": 9940,
  "U1833": 9941,
  "U3988": 9942,
  "U4653": 9943,
  "U477": 9944,
  "U646": 9945,
  "U10475": 9946,
  "U2088": 9947,
  "U3695": 9948,
  "U5275": 9949,
  "U561": 9950,
  "U7676": 9951,
  "U9407": 9952,
  "U9597": 9953,
  "U446": 9954,
  "U4828": 9955,
  "U6082": 9956,
  "U8688": 9957,
  "U3907": 9958,
  "U5602": 9959,
  "U7905": 9960,
  "U857": 9961,
  "U6494": 9962,
  "U7075": 9963,
  "U9549": 9964,
  "U4642": 9965,
  "U4876": 9966,
  "U192": 9967,
  "U2604": 9968,
  "U298": 9969,
  "U7568": 9970,
  "U2290": 9971,
  "U743": 9972,
  "U9507": 9973,
  "U263": 9974,
  "U2785": 9975,
  "U6181": 9976,
  "U907": 9977,
  "U1226": 9978,
  "U145": 9979,
  "U3705": 9980,
  "U435": 9981,
  "U7204": 9982,
  "U4700": 9983,
  "U5286": 9984,
  "U9741": 9985,
  "U11195": 9986,
  "U1382": 9987,
  "U5752": 9988,
  "U1056": 9989,
  "U134": 9990,
  "C2982": 9991,
  "U3316": 9992,
  "U4998": 9993,
  "U5676": 9994,
  "U8687": 9995,
  "U4626": 9996,
  "U359": 9997,
  "U4673": 9998,
  "U5394": 9999,
  "U5812": 10000,
  "U9283": 10001,
  "U1328": 10002,
  "U7974": 10003,
  "U8777": 10004,
  "U4541": 10005,
  "U6967": 10006,
  "U9045": 10007,
  "U2327": 10008,
  "U8697": 10009,
  "U8826": 10010,
  "U991": 10011,
  "U164": 10012,
  "U3609": 10013,
  "U4754": 10014,
  "U7557": 10015,
  "U190": 10016,
  "U3115": 10017,
  "U5025": 10018,
  "U728": 10019,
  "U10874": 10020,
  "U2349": 10021,
  "U4190": 10022,
  "U4779": 10023,
  "U5548": 10024,
  "U6411": 10025,
  "U6523": 10026,
  "U10770": 10027,
  "U3113": 10028,
  "U848": 10029,
  "U9034": 10030,
  "U191": 10031,
  "U6040": 10032,
  "U6249": 10033,
  "U7638": 10034,
  "U2513": 10035,
  "U6547": 10036,
  "U660": 10037,
  "U281": 10038,
  "U29": 10039,
  "U5271": 10040,
  "U9198": 10041,
  "U12153": 10042,
  "U5463": 10043,
  "U8127": 10044,
  "U9154": 10045,
  "U1343": 10046,
  "U237": 10047,
  "U400": 10048,
  "U399": 10049,
  "U8793": 10050,
  "U9693": 10051,
  "U5679": 10052,
  "U986": 10053,
  "U418": 10054,
  "U6222": 10055,
  "U6396": 10056,
  "U6670": 10057,
  "U1940": 10058,
  "U2651": 10059,
  "U3035": 10060,
  "U1992": 10061,
  "U5249": 10062,
  "U7590": 10063,
  "U3000": 10064,
  "U6515": 10065,
  "U8918": 10066,
  "U7290": 10067,
  "U815": 10068,
  "U8876": 10069,
  "U971": 10070,
  "U217": 10071,
  "U2745": 10072,
  "U441": 10073,
  "U5895": 10074,
  "U729": 10075,
  "U7564": 10076,
  "U3053": 10077,
  "U228": 10078,
  "U2979": 10079,
  "U4598": 10080,
  "U8408": 10081,
  "U1862": 10082,
  "U773": 10083,
  "U2114": 10084,
  "U3825": 10085,
  "U9246": 10086,
  "U9258": 10087,
  "U320": 10088,
  "U5209": 10089,
  "U5626": 10090,
  "C1992": 10091,
  "U141": 10092,
  "U1930": 10093,
  "U4516": 10094,
  "U5037": 10095,
  "U763": 10096,
  "U9322": 10097,
  "U9744": 10098,
  "U4562": 10099,
  "U3563": 10100,
  "U8308": 10101,
  "U1370": 10102,
  "U4786": 10103,
  "U4817": 10104,
  "U5148": 10105,
  "U3310": 10106,
  "U1900": 10107,
  "U2929": 10108,
  "U303": 10109,
  "U5086": 10110,
  "U629": 10111,
  "U7053": 10112,
  "U847": 10113,
  "U8780": 10114,
  "U388": 10115,
  "U458": 10116,
  "U6271": 10117,
  "U835": 10118,
  "U2273": 10119,
  "U255": 10120,
  "U291": 10121,
  "U6365": 10122,
  "U3227": 10123,
  "U3281": 10124,
  "U4714": 10125,
  "U4957": 10126,
  "U535": 10127,
  "U5927": 10128,
  "U9689": 10129,
  "U2471": 10130,
  "U3590": 10131,
  "U430": 10132,
  "U6507": 10133,
  "U3339": 10134,
  "U5998": 10135,
  "U2492": 10136,
  "U5265": 10137,
  "U1176": 10138,
  "U5367": 10139,
  "U711": 10140,
  "U4540": 10141,
  "U5450": 10142,
  "U5674": 10143,
  "U6151": 10144,
  "U6711": 10145,
  "U10414": 10146,
  "U404": 10147,
  "U6677": 10148,
  "U7831": 10149,
  "U405": 10150,
  "U5566": 10151,
  "U3639": 10152,
  "U4350": 10153,
  "U4385": 10154,
  "U5851": 10155,
  "U961": 10156,
  "U3234": 10157,
  "U5755": 10158,
  "U395": 10159,
  "U2902": 10160,
  "U309": 10161,
  "U4364": 10162,
  "U7525": 10163,
  "U1416": 10164,
  "U344": 10165,
  "U10403": 10166,
  "U1076": 10167,
  "U3508": 10168,
  "U3793": 10169,
  "U5075": 10170,
  "U915": 10171,
  "U3589": 10172,
  "U5711": 10173,
  "U332": 10174,
  "U4819": 10175,
  "U9650": 10176,
  "U2402": 10177,
  "U5396": 10178,
  "U7856": 10179,
  "U1513": 10180,
  "U2435": 10181,
  "U7591": 10182,
  "U9277": 10183,
  "U114": 10184,
  "U9127": 10185,
  "U1347": 10186,
  "U316": 10187,
  "U4470": 10188,
  "U6286": 10189,
  "U1086": 10190,
  "U4782": 10191,
  "U7687": 10192,
  "U8195": 10193,
  "U9196": 10194,
  "U1885": 10195,
  "U2664": 10196,
  "U3805": 10197,
  "U5787": 10198,
  "U707": 10199,
  "U9064": 10200,
  "U3570": 10201,
  "U6838": 10202,
  "U153": 10203,
  "U3437": 10204,
  "U6382": 10205,
  "U8201": 10206,
  "U1333": 10207,
  "U431": 10208,
  "U5850": 10209,
  "U3539": 10210,
  "U5640": 10211,
  "U4371": 10212,
  "U5868": 10213,
  "U1083": 10214,
  "U1815": 10215,
  "U272": 10216,
  "U422": 10217,
  "U5597": 10218,
  "U1770": 10219,
  "U3903": 10220,
  "U5020": 10221,
  "U5706": 10222,
  "U9461": 10223,
  "U2033": 10224,
  "U3389": 10225,
  "U542": 10226,
  "U5855": 10227,
  "U1301": 10228,
  "U201": 10229,
  "U6246": 10230,
  "U6843": 10231,
  "U8755": 10232,
  "U284": 10233,
  "U1450": 10234,
  "U4331": 10235,
  "U4735": 10236,
  "U9210": 10237,
  "U213": 10238,
  "U2333": 10239,
  "U9237": 10240,
  "U130": 10241,
  "U2618": 10242,
  "U285": 10243,
  "U6739": 10244,
  "U8723": 10245,
  "U6622": 10246,
  "U9134": 10247,
  "U731": 10248,
  "U8790": 10249,
  "U10763": 10250,
  "U2550": 10251,
  "U7020": 10252,
  "U8796": 10253,
  "U3123": 10254,
  "U4164": 10255,
  "U5215": 10256,
  "U5342": 10257,
  "U7549": 10258,
  "U9014": 10259,
  "U144": 10260,
  "U4969": 10261,
  "U8070": 10262,
  "U5624": 10263,
  "U5937": 10264,
  "U7276": 10265,
  "U1055": 10266,
  "U1228": 10267,
  "U2576": 10268,
  "U5622": 10269,
  "U860": 10270,
  "U1489": 10271,
  "U2188": 10272,
  "U5504": 10273,
  "U5174": 10274,
  "U2288": 10275,
  "U4668": 10276,
  "U788": 10277,
  "U8677": 10278,
  "U3275": 10279,
  "U3444": 10280,
  "U5951": 10281,
  "U2247": 10282,
  "U4169": 10283,
  "U5091": 10284,
  "U5186": 10285,
  "C2588": 10286,
  "U2468": 10287,
  "U2906": 10288,
  "U3483": 10289,
  "U8008": 10290,
  "U2211": 10291,
  "U2286": 10292,
  "U3926": 10293,
  "U605": 10294,
  "U3730": 10295,
  "U4208": 10296,
  "U5926": 10297,
  "U7542": 10298,
  "U1882": 10299,
  "U5311": 10300,
  "U7039": 10301,
  "U1128": 10302,
  "U365": 10303,
  "U7798": 10304,
  "U886": 10305,
  "U2746": 10306,
  "U409": 10307,
  "U4831": 10308,
  "U602": 10309,
  "U7769": 10310,
  "U490": 10311,
  "U6643": 10312,
  "U7197": 10313,
  "U781": 10314,
  "U4478": 10315,
  "U5302": 10316,
  "U7171": 10317,
  "U7494": 10318,
  "U2461": 10319,
  "U3836": 10320,
  "U764": 10321,
  "U9136": 10322,
  "U650": 10323,
  "U1345": 10324,
  "U7660": 10325,
  "U3001": 10326,
  "U7666": 10327,
  "U2009": 10328,
  "U4310": 10329,
  "U5527": 10330,
  "U752": 10331,
  "U9225": 10332,
  "U3527": 10333,
  "U5007": 10334,
  "U5742": 10335,
  "U9238": 10336,
  "U9639": 10337,
  "U3615": 10338,
  "U4807": 10339,
  "U5238": 10340,
  "U6360": 10341,
  "U9364": 10342,
  "U4014": 10343,
  "U1233": 10344,
  "U2329": 10345,
  "U2848": 10346,
  "U362": 10347,
  "U5941": 10348,
  "U351": 10349,
  "U6598": 10350,
  "U9488": 10351,
  "U12185": 10352,
  "U2798": 10353,
  "U296": 10354,
  "U4321": 10355,
  "U1097": 10356,
  "U1134": 10357,
  "U6157": 10358,
  "U7580": 10359,
  "U8495": 10360,
  "U4622": 10361,
  "U9167": 10362,
  "U1046": 10363,
  "C466": 10364,
  "U4717": 10365,
  "U5579": 10366,
  "U8806": 10367,
  "U4710": 10368,
  "U2308": 10369,
  "U315": 10370,
  "U9296": 10371,
  "U1087": 10372,
  "U1989": 10373,
  "U4021": 10374,
  "U7647": 10375,
  "U55": 10376,
  "U5758": 10377,
  "U4925": 10378,
  "U7408": 10379,
  "U2583": 10380,
  "U4114": 10381,
  "U1209": 10382,
  "U178": 10383,
  "U4302": 10384,
  "U2532": 10385,
  "U4381": 10386,
  "U6504": 10387,
  "U7947": 10388,
  "U1243": 10389,
  "U2575": 10390,
  "U5814": 10391,
  "U649": 10392,
  "U4676": 10393,
  "U7465": 10394,
  "U3295": 10395,
  "U3584": 10396,
  "U6110": 10397,
  "U7702": 10398,
  "U8264": 10399,
  "U5365": 10400,
  "U6162": 10401,
  "U3054": 10402,
  "U4298": 10403,
  "U6372": 10404,
  "U9312": 10405,
  "U4872": 10406,
  "U7396": 10407,
  "C395": 10408,
  "U1502": 10409,
  "U1573": 10410,
  "U2973": 10411,
  "U1482": 10412,
  "U4863": 10413,
  "U1535": 10414,
  "C612": 10415,
  "U699": 10416,
  "C467": 10417,
  "U2494": 10418,
  "U2569": 10419,
  "U4323": 10420,
  "U7473": 10421,
  "U8822": 10422,
  "U7000": 10423,
  "U12257": 10424,
  "U2225": 10425,
  "U4414": 10426,
  "U5864": 10427,
  "U9335": 10428,
  "U5257": 10429,
  "U7527": 10430,
  "U1035": 10431,
  "U1122": 10432,
  "U3241": 10433,
  "U6391": 10434,
  "U6401": 10435,
  "U9051": 10436,
  "U6096": 10437,
  "U8896": 10438,
  "U4602": 10439,
  "U7658": 10440,
  "U2738": 10441,
  "U4178": 10442,
  "U4821": 10443,
  "U5200": 10444,
  "U5306": 10445,
  "U5324": 10446,
  "U5330": 10447,
  "U8597": 10448,
  "U100": 10449,
  "U1202": 10450,
  "U1286": 10451,
  "U1423": 10452,
  "U4560": 10453,
  "U6407": 10454,
  "U9268": 10455,
  "U999": 10456,
  "U2262": 10457,
  "U904": 10458,
  "U2149": 10459,
  "U2947": 10460,
  "U3620": 10461,
  "U7480": 10462,
  "U239": 10463,
  "U3617": 10464,
  "U8898": 10465,
  "U3561": 10466,
  "U504": 10467,
  "U5693": 10468,
  "U645": 10469,
  "U8085": 10470,
  "U9596": 10471,
  "U1000": 10472,
  "U235": 10473,
  "U1977": 10474,
  "U4380": 10475,
  "U5592": 10476,
  "U9224": 10477,
  "U117": 10478,
  "U7725": 10479,
  "U1203": 10480,
  "U1728": 10481,
  "U6650": 10482,
  "U9398": 10483,
  "U9453": 10484,
  "U269": 10485,
  "U5451": 10486,
  "U6661": 10487,
  "U2568": 10488,
  "U5774": 10489,
  "U1216": 10490,
  "U207": 10491,
  "U2578": 10492,
  "U5443": 10493,
  "U5697": 10494,
  "U8324": 10495,
  "U2012": 10496,
  "U3280": 10497,
  "U4480": 10498,
  "U2818": 10499,
  "U9121": 10500,
  "U2049": 10501,
  "U379": 10502,
  "U4692": 10503,
  "U5429": 10504,
  "U5813": 10505,
  "U924": 10506,
  "U6232": 10507,
  "U6293": 10508,
  "U9311": 10509,
  "U3622": 10510,
  "U4027": 10511,
  "U655": 10512,
  "U8136": 10513,
  "U2041": 10514,
  "U402": 10515,
  "U7267": 10516,
  "U8676": 10517,
  "C1770": 10518,
  "U3694": 10519,
  "U6140": 10520,
  "U2588": 10521,
  "U3466": 10522,
  "U3480": 10523,
  "U3927": 10524,
  "U4813": 10525,
  "U595": 10526,
  "U7770": 10527,
  "U893": 10528,
  "U1215": 10529,
  "U1330": 10530,
  "U1417": 10531,
  "C3543": 10532,
  "U5644": 10533,
  "U5745": 10534,
  "U780": 10535,
  "U2142": 10536,
  "U305": 10537,
  "U5468": 10538,
  "U5952": 10539,
  "U933": 10540,
  "U9680": 10541,
  "U1579": 10542,
  "U9116": 10543,
  "U3546": 10544,
  "U457": 10545,
  "U801": 10546,
  "U8968": 10547,
  "U9203": 10548,
  "U3030": 10549,
  "U478": 10550,
  "U6135": 10551,
  "U9140": 10552,
  "U268": 10553,
  "U2867": 10554,
  "U8976": 10555,
  "U9534": 10556,
  "U3009": 10557,
  "U693": 10558,
  "U3058": 10559,
  "U3906": 10560,
  "U7583": 10561,
  "U8117": 10562,
  "U8850": 10563,
  "U8987": 10564,
  "U212": 10565,
  "U4221": 10566,
  "U843": 10567,
  "U1499": 10568,
  "U1608": 10569,
  "U4102": 10570,
  "U8124": 10571,
  "U998": 10572,
  "U2396": 10573,
  "U1462": 10574,
  "C4095": 10575,
  "U428": 10576,
  "U466": 10577,
  "U5228": 10578,
  "U563": 10579,
  "U6475": 10580,
  "U2993": 10581,
  "U4213": 10582,
  "U503": 10583,
  "U1254": 10584,
  "U2974": 10585,
  "U5465": 10586,
  "U5776": 10587,
  "U6658": 10588,
  "U8969": 10589,
  "U1138": 10590,
  "U413": 10591,
  "U8353": 10592,
  "U871": 10593,
  "U10464": 10594,
  "U6454": 10595,
  "U7100": 10596,
  "U714": 10597,
  "U9436": 10598,
  "U7516": 10599,
  "U7990": 10600,
  "U804": 10601,
  "U4473": 10602,
  "U914": 10603,
  "U345": 10604,
  "U5375": 10605,
  "U681": 10606,
  "U7606": 10607,
  "U2772": 10608,
  "U2879": 10609,
  "U7560": 10610,
  "U2661": 10611,
  "U6009": 10612,
  "U7745": 10613,
  "U1177": 10614,
  "U3648": 10615,
  "U702": 10616,
  "U2876": 10617,
  "U3821": 10618,
  "U5412": 10619,
  "U9697": 10620,
  "C1971": 10621,
  "C1737": 10622,
  "U5595": 10623,
  "U6918": 10624,
  "U694": 10625,
  "U1159": 10626,
  "U3806": 10627,
  "U761": 10628,
  "U8952": 10629,
  "U9602": 10630,
  "U2078": 10631,
  "U313": 10632,
  "U3591": 10633,
  "U3995": 10634,
  "U6390": 10635,
  "U2834": 10636,
  "U2845": 10637,
  "C101": 10638,
  "U3231": 10639,
  "U436": 10640,
  "U8727": 10641,
  "U3911": 10642,
  "U4172": 10643,
  "U4365": 10644,
  "U4387": 10645,
  "U4608": 10646,
  "U5104": 10647,
  "U2645": 10648,
  "U3720": 10649,
  "U6224": 10650,
  "U1154": 10651,
  "U2096": 10652,
  "U2232": 10653,
  "U6709": 10654,
  "U7298": 10655,
  "U4508": 10656,
  "U8379": 10657,
  "U8851": 10658,
  "U3455": 10659,
  "U685": 10660,
  "U1702": 10661,
  "U5574": 10662,
  "U6306": 10663,
  "U140": 10664,
  "U2106": 10665,
  "U2441": 10666,
  "U4868": 10667,
  "U531": 10668,
  "U654": 10669,
  "U2493": 10670,
  "U2935": 10671,
  "U5405": 10672,
  "U9384": 10673,
  "U691": 10674,
  "U7579": 10675,
  "U312": 10676,
  "U6037": 10677,
  "U1207": 10678,
  "U2470": 10679,
  "U4566": 10680,
  "U790": 10681,
  "U2454": 10682,
  "U4916": 10683,
  "U1236": 10684,
  "U3433": 10685,
  "U8767": 10686,
  "U1145": 10687,
  "U4579": 10688,
  "U6289": 10689,
  "U7491": 10690,
  "U9613": 10691,
  "U3482": 10692,
  "U6298": 10693,
  "U944": 10694,
  "U5808": 10695,
  "U1065": 10696,
  "U1460": 10697,
  "U1821": 10698,
  "U2989": 10699,
  "U6495": 10700,
  "U9288": 10701,
  "U6837": 10702,
  "U9211": 10703,
  "U7003": 10704,
  "U8671": 10705,
  "U9314": 10706,
  "U12322": 10707,
  "U3569": 10708,
  "U5349": 10709,
  "U5619": 10710,
  "U1591": 10711,
  "U1112": 10712,
  "U3960": 10713,
  "U6073": 10714,
  "U8459": 10715,
  "U9448": 10716,
  "U2815": 10717,
  "U2683": 10718,
  "U3691": 10719,
  "U389": 10720,
  "U4595": 10721,
  "U5476": 10722,
  "U1238": 10723,
  "U2526": 10724,
  "U3658": 10725,
  "U5712": 10726,
  "U116": 10727,
  "U390": 10728,
  "U9383": 10729,
  "U9598": 10730,
  "U4258": 10731,
  "U6456": 10732,
  "U2518": 10733,
  "U4072": 10734,
  "U5667": 10735,
  "U8823": 10736,
  "U8989": 10737,
  "U7036": 10738,
  "U8997": 10739,
  "U4834": 10740,
  "U5093": 10741,
  "U5116": 10742,
  "U6813": 10743,
  "U3029": 10744,
  "U3359": 10745,
  "U8663": 10746,
  "U9503": 10747,
  "U264": 10748,
  "U770": 10749,
  "U9521": 10750,
  "U4033": 10751,
  "U7804": 10752,
  "U881": 10753,
  "U10135": 10754,
  "U8591": 10755,
  "U8951": 10756,
  "U1068": 10757,
  "U9328": 10758,
  "U1232": 10759,
  "U1379": 10760,
  "U179": 10761,
  "U2185": 10762,
  "U3325": 10763,
  "U368": 10764,
  "U4324": 10765,
  "U1600": 10766,
  "U5345": 10767,
  "U5484": 10768,
  "U5830": 10769,
  "U1813": 10770,
  "U4440": 10771,
  "U7645": 10772,
  "U230": 10773,
  "U3847": 10774,
  "U558": 10775,
  "U8060": 10776,
  "U9275": 10777,
  "U539": 10778,
  "U5865": 10779,
  "U8583": 10780,
  "U5361": 10781,
  "U7855": 10782,
  "U5193": 10783,
  "U5992": 10784,
  "U836": 10785,
  "U2073": 10786,
  "U2118": 10787,
  "U2910": 10788,
  "U596": 10789,
  "U288": 10790,
  "U3203": 10791,
  "U5473": 10792,
  "U931": 10793,
  "U978": 10794,
  "U2816": 10795,
  "U4109": 10796,
  "U1364": 10797,
  "U1639": 10798,
  "U6388": 10799,
  "U8192": 10800,
  "U867": 10801,
  "U1915": 10802,
  "U314": 10803,
  "U5415": 10804,
  "U6282": 10805,
  "U5437": 10806,
  "U897": 10807,
  "U521": 10808,
  "U5351": 10809,
  "U5731": 10810,
  "U7876": 10811,
  "U716": 10812,
  "U8872": 10813,
  "U9101": 10814,
  "U996": 10815,
  "U2342": 10816,
  "U4094": 10817,
  "U7519": 10818,
  "U1253": 10819,
  "U131": 10820,
  "U1703": 10821,
  "U2654": 10822,
  "U3062": 10823,
  "U1025": 10824,
  "U1312": 10825,
  "U1309": 10826,
  "U1403": 10827,
  "U148": 10828,
  "U2304": 10829,
  "U3645": 10830,
  "U1040": 10831,
  "U5085": 10832,
  "U6419": 10833,
  "U2552": 10834,
  "U11694": 10835,
  "U7972": 10836,
  "U11425": 10837,
  "U6774": 10838,
  "U8798": 10839,
  "U3130": 10840,
  "U5245": 10841,
  "U3603": 10842,
  "U5717": 10843,
  "U4276": 10844,
  "U6888": 10845,
  "U866": 10846,
  "U875": 10847,
  "U9208": 10848,
  "U3936": 10849,
  "U8647": 10850,
  "U9066": 10851,
  "U9090": 10852,
  "U2753": 10853,
  "U4320": 10854,
  "U3733": 10855,
  "U4260": 10856,
  "U4588": 10857,
  "U7882": 10858,
  "U8693": 10859,
  "U9028": 10860,
  "U6875": 10861,
  "U5055": 10862,
  "U9830": 10863,
  "U1999": 10864,
  "U2666": 10865,
  "U4444": 10866,
  "U5409": 10867,
  "U62": 10868,
  "U8293": 10869,
  "U1344": 10870,
  "U6098": 10871,
  "U7843": 10872,
  "U2945": 10873,
  "U6257": 10874,
  "U2610": 10875,
  "U5182": 10876,
  "U308": 10877,
  "U5612": 10878,
  "U2731": 10879,
  "U5356": 10880,
  "U6374": 10881,
  "U2301": 10882,
  "U2770": 10883,
  "U6994": 10884,
  "U737": 10885,
  "U1339": 10886,
  "U4934": 10887,
  "U5801": 10888,
  "U852": 10889,
  "U686": 10890,
  "U232": 10891,
  "U286": 10892,
  "U4482": 10893,
  "U3110": 10894,
  "U3463": 10895,
  "U4134": 10896,
  "U420": 10897,
  "U6370": 10898,
  "U7559": 10899,
  "U903": 10900,
  "U2852": 10901,
  "U2392": 10902,
  "U3284": 10903,
  "U4448": 10904,
  "U643": 10905,
  "U6862": 10906,
  "U2069": 10907,
  "U3890": 10908,
  "U895": 10909,
  "U293": 10910,
  "U3145": 10911,
  "U6443": 10912,
  "U748": 10913,
  "U8508": 10914,
  "U5216": 10915,
  "U9494": 10916,
  "U1268": 10917,
  "U167": 10918,
  "U3093": 10919,
  "C3419": 10920,
  "U340": 10921,
  "U593": 10922,
  "U6685": 10923,
  "U9389": 10924,
  "U4832": 10925,
  "U6760": 10926,
  "U7518": 10927,
  "U8862": 10928,
  "U2782": 10929,
  "U6192": 10930,
  "U6697": 10931,
  "U869": 10932,
  "U3082": 10933,
  "U3134": 10934,
  "U8703": 10935,
  "U2210": 10936,
  "U3485": 10937,
  "U551": 10938,
  "U7849": 10939,
  "U2996": 10940,
  "U718": 10941,
  "U3576": 10942,
  "U5783": 10943,
  "U754": 10944,
  "U8700": 10945,
  "U9192": 10946,
  "U9443": 10947,
  "U953": 10948,
  "U1599": 10949,
  "U2309": 10950,
  "U174": 10951,
  "C7414": 10952,
  "U3947": 10953,
  "U5880": 10954,
  "U7894": 10955,
  "U8231": 10956,
  "U8689": 10957,
  "U1160": 10958,
  "U4685": 10959,
  "U5222": 10960,
  "U7728": 10961,
  "U1785": 10962,
  "U2330": 10963,
  "U5413": 10964,
  "U9255": 10965,
  "U7571": 10966,
  "U526": 10967,
  "U11152": 10968,
  "U2346": 10969,
  "U2475": 10970,
  "U2667": 10971,
  "U576": 10972,
  "U7182": 10973,
  "U4009": 10974,
  "U8726": 10975,
  "U4897": 10976,
  "U725": 10977,
  "U1192": 10978,
  "U2652": 10979,
  "U2926": 10980,
  "U6506": 10981,
  "U4463": 10982,
  "U8718": 10983,
  "U8772": 10984,
  "U673": 10985,
  "U10437": 10986,
  "U3167": 10987,
  "U360": 10988,
  "U2405": 10989,
  "U4648": 10990,
  "U7581": 10991,
  "U864": 10992,
  "U6230": 10993,
  "U1100": 10994,
  "U9304": 10995,
  "U1841": 10996,
  "U7006": 10997,
  "U7592": 10998,
  "U9669": 10999,
  "U165": 11000,
  "U4272": 11001,
  "U473": 11002,
  "U540": 11003,
  "U819": 11004,
  "U8256": 11005,
  "U9083": 11006,
  "U4923": 11007,
  "U6846": 11008,
  "U7726": 11009,
  "U5338": 11010,
  "U543": 11011,
  "U9659": 11012,
  "U2375": 11013,
  "U429": 11014,
  "U5158": 11015,
  "U988": 11016,
  "U1249": 11017,
  "U4464": 11018,
  "U5140": 11019,
  "U1310": 11020,
  "U545": 11021,
  "U619": 11022,
  "U2361": 11023,
  "U5459": 11024,
  "U7704": 11025,
  "U8753": 11026,
  "U7784": 11027,
  "U1306": 11028,
  "U3120": 11029,
  "U3138": 11030,
  "U4654": 11031,
  "U5385": 11032,
  "U556": 11033,
  "U5920": 11034,
  "U5934": 11035,
  "U10410": 11036,
  "U1952": 11037,
  "U5389": 11038,
  "U544": 11039,
  "U630": 11040,
  "U3101": 11041,
  "U4224": 11042,
  "U2116": 11043,
  "U282": 11044,
  "U5999": 11045,
  "U2299": 11046,
  "U3537": 11047,
  "U377": 11048,
  "U4103": 11049,
  "U1098": 11050,
  "U2499": 11051,
  "U2542": 11052,
  "U5514": 11053,
  "U1394": 11054,
  "U4029": 11055,
  "U5154": 11056,
  "U1263": 11057,
  "U1694": 11058,
  "U4067": 11059,
  "U9633": 11060,
  "U1273": 11061,
  "U2182": 11062,
  "U2382": 11063,
  "U3406": 11064,
  "U9010": 11065,
  "U250": 11066,
  "U697": 11067,
  "U9632": 11068,
  "U151": 11069,
  "U2894": 11070,
  "U4777": 11071,
  "U5777": 11072,
  "U637": 11073,
  "U6715": 11074,
  "U9662": 11075,
  "U7755": 11076,
  "U799": 11077,
  "U805": 11078,
  "U8690": 11079,
  "U1446": 11080,
  "U2508": 11081,
  "U4083": 11082,
  "U4534": 11083,
  "U6903": 11084,
  "U7690": 11085,
  "U1539": 11086,
  "U2624": 11087,
  "U4020": 11088,
  "U5535": 11089,
  "U163": 11090,
  "U3421": 11091,
  "U7008": 11092,
  "U8403": 11093,
  "U3548": 11094,
  "U5982": 11095,
  "U603": 11096,
  "U6828": 11097,
  "U2498": 11098,
  "U2360": 11099,
  "C3276": 11100,
  "U941": 11101,
  "U1250": 11102,
  "U2014": 11103,
  "U2735": 11104,
  "U469": 11105,
  "U5173": 11106,
  "U6267": 11107,
  "U274": 11108,
  "U4121": 11109,
  "U553": 11110,
  "U9230": 11111,
  "U698": 11112,
  "U2887": 11113,
  "U3178": 11114,
  "U4312": 11115,
  "U8067": 11116,
  "U6052": 11117,
  "U6260": 11118,
  "U834": 11119,
  "U9318": 11120,
  "U2272": 11121,
  "U5273": 11122,
  "U651": 11123,
  "U1221": 11124,
  "U9390": 11125,
  "U226": 11126,
  "U3408": 11127,
  "U8653": 11128,
  "U4197": 11129,
  "U6055": 11130,
  "U2893": 11131,
  "U666": 11132,
  "U5017": 11133,
  "U1110": 11134,
  "U4623": 11135,
  "U6255": 11136,
  "U4634": 11137,
  "U7885": 11138,
  "U370": 11139,
  "U5586": 11140,
  "U5844": 11141,
  "U6278": 11142,
  "U9239": 11143,
  "U8650": 11144,
  "U10472": 11145,
  "U3831": 11146,
  "U4379": 11147,
  "U8305": 11148,
  "U1272": 11149,
  "U218": 11150,
  "U5125": 11151,
  "U8083": 11152,
  "U5822": 11153,
  "U6301": 11154,
  "U2170": 11155,
  "U5631": 11156,
  "U2281": 11157,
  "U3869": 11158,
  "U4603": 11159,
  "U524": 11160,
  "U11756": 11161,
  "U168": 11162,
  "U254": 11163,
  "U3334": 11164,
  "U3585": 11165,
  "U7306": 11166,
  "U348": 11167,
  "U1500": 11168,
  "C5778": 11169,
  "U1978": 11170,
  "U278": 11171,
  "U2748": 11172,
  "U4290": 11173,
  "U6905": 11174,
  "U1516": 11175,
  "U3683": 11176,
  "U5142": 11177,
  "U5175": 11178,
  "U2029": 11179,
  "U3199": 11180,
  "U3671": 11181,
  "U4023": 11182,
  "U7569": 11183,
  "U2691": 11184,
  "U6350": 11185,
  "U4670": 11186,
  "U5185": 11187,
  "U133": 11188,
  "U2219": 11189,
  "U2630": 11190,
  "U2693": 11191,
  "U7419": 11192,
  "U9026": 11193,
  "U132": 11194,
  "U939": 11195,
  "U1487": 11196,
  "U150": 11197,
  "U1749": 11198,
  "U949": 11199,
  "U6063": 11200,
  "U6512": 11201,
  "U8237": 11202,
  "U9247": 11203,
  "U3360": 11204,
  "U6572": 11205,
  "U2760": 11206,
  "U4666": 11207,
  "U8761": 11208,
  "U2230": 11209,
  "U6639": 11210,
  "U7670": 11211,
  "U2067": 11212,
  "U4200": 11213,
  "U6143": 11214,
  "U2057": 11215,
  "U3353": 11216,
  "U7622": 11217,
  "U1278": 11218,
  "U3967": 11219,
  "U5452": 11220,
  "U5578": 11221,
  "U6632": 11222,
  "U6652": 11223,
  "U6882": 11224,
  "U7762": 11225,
  "U9006": 11226,
  "U9497": 11227,
  "U8920": 11228,
  "U3763": 11229,
  "U634": 11230,
  "U4919": 11231,
  "U9231": 11232,
  "U3133": 11233,
  "U9747": 11234,
  "U3129": 11235,
  "U9379": 11236,
  "U7780": 11237,
  "C2021": 11238,
  "U1174": 11239,
  "U1422": 11240,
  "U2358": 11241,
  "U3270": 11242,
  "U6479": 11243,
  "U1426": 11244,
  "U2537": 11245,
  "U2670": 11246,
  "U2853": 11247,
  "U5824": 11248,
  "U6014": 11249,
  "U6444": 11250,
  "U5079": 11251,
  "U587": 11252,
  "U1322": 11253,
  "U28": 11254,
  "U9046": 11255,
  "U2788": 11256,
  "U7467": 11257,
  "U2907": 11258,
  "U5051": 11259,
  "U1496": 11260,
  "U1923": 11261,
  "U5388": 11262,
  "U364": 11263,
  "U7360": 11264,
  "U9245": 11265,
  "U1947": 11266,
  "U4858": 11267,
  "U9218": 11268,
  "U2206": 11269,
  "U4785": 11270,
  "U7659": 11271,
  "U610": 11272,
  "U980": 11273,
  "U1367": 11274,
  "U3832": 11275,
  "U3833": 11276,
  "U4267": 11277,
  "U7809": 11278,
  "U9253": 11279,
  "U5049": 11280,
  "U6587": 11281,
  "U7129": 11282,
  "U2740": 11283,
  "U562": 11284,
  "U751": 11285,
  "U2095": 11286,
  "U598": 11287,
  "C3953": 11288,
  "U7213": 11289,
  "U7627": 11290,
  "U9204": 11291,
  "U4942": 11292,
  "U411": 11293,
  "U957": 11294,
  "U2412": 11295,
  "U9681": 11296,
  "U1896": 11297,
  "U2016": 11298,
  "U5382": 11299,
  "U8049": 11300,
  "U1022": 11301,
  "U4660": 11302,
  "U6290": 11303,
  "U8020": 11304,
  "U8901": 11305,
  "U9415": 11306,
  "U1373": 11307,
  "U1412": 11308,
  "U6144": 11309,
  "U7510": 11310,
  "U181": 11311,
  "U3400": 11312,
  "U840": 11313,
  "U8536": 11314,
  "U3122": 11315,
  "U6855": 11316,
  "U7137": 11317,
  "U7994": 11318,
  "U3382": 11319,
  "U3711": 11320,
  "U5183": 11321,
  "U5537": 11322,
  "U5954": 11323,
  "U2598": 11324,
  "U2620": 11325,
  "U299": 11326,
  "U3235": 11327,
  "U4490": 11328,
  "U7674": 11329,
  "U2439": 11330,
  "U4370": 11331,
  "U6065": 11332,
  "U1762": 11333,
  "U8729": 11334,
  "U2289": 11335,
  "U3342": 11336,
  "U4966": 11337,
  "U5418": 11338,
  "U652": 11339,
  "U8614": 11340,
  "U2235": 11341,
  "U375": 11342,
  "U4593": 11343,
  "U6303": 11344,
  "U2362": 11345,
  "U3634": 11346,
  "U8713": 11347,
  "U2813": 11348,
  "U324": 11349,
  "U8864": 11350,
  "U1354": 11351,
  "U5109": 11352,
  "U8841": 11353,
  "U1293": 11354,
  "U783": 11355,
  "U3937": 11356,
  "U2741": 11357,
  "U4016": 11358,
  "U7649": 11359,
  "U475": 11360,
  "U2711": 11361,
  "U497": 11362,
  "U6993": 11363,
  "U721": 11364,
  "U9088": 11365,
  "U3323": 11366,
  "U4309": 11367,
  "U5765": 11368,
  "U7138": 11369,
  "U5729": 11370,
  "U6259": 11371,
  "U3962": 11372,
  "U4531": 11373,
  "U1470": 11374,
  "U547": 11375,
  "U7441": 11376,
  "U5232": 11377,
  "U3452": 11378,
  "U4429": 11379,
  "U841": 11380,
  "U1580": 11381,
  "C1603": 11382,
  "U5423": 11383,
  "U8616": 11384,
  "U5677": 11385,
  "U733": 11386,
  "U4827": 11387,
  "U6528": 11388,
  "U8773": 11389,
  "U1115": 11390,
  "U2479": 11391,
  "U565": 11392,
  "U5892": 11393,
  "U6213": 11394,
  "U8803": 11395,
  "U6132": 11396,
  "U7023": 11397,
  "U9290": 11398,
  "U9462": 11399,
  "U3112": 11400,
  "U3871": 11401,
  "U5319": 11402,
  "U7588": 11403,
  "U1158": 11404,
  "U8564": 11405,
  "U2543": 11406,
  "U3243": 11407,
  "U6795": 11408,
  "U6845": 11409,
  "U506": 11410,
  "U5916": 11411,
  "U5784": 11412,
  "U7084": 11413,
  "U7716": 11414,
  "U943": 11415,
  "U9465": 11416,
  "U2975": 11417,
  "U9506": 11418,
  "U1424": 11419,
  "U2968": 11420,
  "U6050": 11421,
  "U8427": 11422,
  "U1662": 11423,
  "U3535": 11424,
  "U5944": 11425,
  "U2159": 11426,
  "U2194": 11427,
  "U5681": 11428,
  "U825": 11429,
  "U3860": 11430,
  "U4301": 11431,
  "U710": 11432,
  "U8271": 11433,
  "U9755": 11434,
  "U5407": 11435,
  "U2656": 11436,
  "U321": 11437,
  "U2665": 11438,
  "U4651": 11439,
  "U1029": 11440,
  "U2094": 11441,
  "U2688": 11442,
  "U5562": 11443,
  "U6007": 11444,
  "U614": 11445,
  "U1718": 11446,
  "U2640": 11447,
  "U3057": 11448,
  "U9685": 11449,
  "U5106": 11450,
  "U4362": 11451,
  "U653": 11452,
  "U872": 11453,
  "U8828": 11454,
  "U8957": 11455,
  "U2411": 11456,
  "U6625": 11457,
  "U7361": 11458,
  "U1139": 11459,
  "U4218": 11460,
  "U5176": 11461,
  "U3582": 11462,
  "U3043": 11463,
  "U4568": 11464,
  "U510": 11465,
  "U6078": 11466,
  "U615": 11467,
  "U2516": 11468,
  "U2689": 11469,
  "U3523": 11470,
  "U173": 11471,
  "U2584": 11472,
  "U4752": 11473,
  "U493": 11474,
  "U6609": 11475,
  "U8750": 11476,
  "U1958": 11477,
  "U2981": 11478,
  "U5293": 11479,
  "U1284": 11480,
  "U1976": 11481,
  "U2047": 11482,
  "U2530": 11483,
  "U3824": 11484,
  "U5687": 11485,
  "U8816": 11486,
  "U8873": 11487,
  "C528": 11488,
  "U5177": 11489,
  "C2008": 11490,
  "U7813": 11491,
  "U195": 11492,
  "U80": 11493,
  "C1929": 11494,
  "U4721": 11495,
  "U5665": 11496,
  "U8247": 11497,
  "U2343": 11498,
  "U3376": 11499,
  "U1378": 11500,
  "U4085": 11501,
  "U6093": 11502,
  "U7707": 11503,
  "U3210": 11504,
  "U5713": 11505,
  "U7792": 11506,
  "U3882": 11507,
  "U4974": 11508,
  "C3040": 11509,
  "U347": 11510,
  "U638": 11511,
  "U8775": 11512,
  "U9180": 11513,
  "U3864": 11514,
  "U4961": 11515,
  "U5570": 11516,
  "U7506": 11517,
  "U6107": 11518,
  "U9438": 11519,
  "U3709": 11520,
  "U5660": 11521,
  "U3271": 11522,
  "U8585": 11523,
  "U1307": 11524,
  "U3293": 11525,
  "U451": 11526,
  "U319": 11527,
  "U5202": 11528,
  "U2201": 11529,
  "U302": 11530,
  "U706": 11531,
  "U9427": 11532,
  "U6926": 11533,
  "U8741": 11534,
  "U2851": 11535,
  "U7265": 11536,
  "U5328": 11537,
  "U8021": 11538,
  "U2732": 11539,
  "U9287": 11540,
  "U2113": 11541,
  "U3184": 11542,
  "U9510": 11543,
  "U1880": 11544,
  "U784": 11545,
  "U993": 11546,
  "U339": 11547,
  "U7413": 11548,
  "U7094": 11549,
  "U6736": 11550,
  "U9309": 11551,
  "U9533": 11552,
  "U2678": 11553,
  "U3545": 11554,
  "U3994": 11555,
  "U5340": 11556,
  "U5416": 11557,
  "U5993": 11558,
  "U8684": 11559,
  "U5593": 11560,
  "U3014": 11561,
  "U5604": 11562,
  "U3005": 11563,
  "U3631": 11564,
  "U5947": 11565,
  "U3556": 11566,
  "U1169": 11567,
  "U327": 11568,
  "U810": 11569,
  "U9361": 11570,
  "U3291": 11571,
  "U393": 11572,
  "U635": 11573,
  "U9163": 11574,
  "U9295": 11575,
  "U3929": 11576,
  "U2432": 11577,
  "U2546": 11578,
  "U443": 11579,
  "U6705": 11580,
  "U280": 11581,
  "U5648": 11582,
  "U6649": 11583,
  "C2127": 11584,
  "C3331": 11585,
  "U583": 11586,
  "U1964": 11587,
  "U4227": 11588,
  "U1317": 11589,
  "U3579": 11590,
  "U3823": 11591,
  "U814": 11592,
  "U2622": 11593,
  "U5047": 11594,
  "U8429": 11595,
  "U9500": 11596,
  "U4730": 11597,
  "U8740": 11598,
  "U333": 11599,
  "U882": 11600,
  "U6559": 11601,
  "U9069": 11602,
  "U6954": 11603,
  "U5100": 11604,
  "U8811": 11605,
  "U481": 11606,
  "U9019": 11607,
  "U1670": 11608,
  "U6539": 11609,
  "U7751": 11610,
  "U96": 11611,
  "U534": 11612,
  "U9509": 11613,
  "U7746": 11614,
  "U6749": 11615,
  "U3723": 11616,
  "U6460": 11617,
  "U7672": 11618,
  "U9200": 11619,
  "U1019": 11620,
  "U2660": 11621,
  "U974": 11622,
  "U1222": 11623,
  "U6263": 11624,
  "U8344": 11625,
  "U959": 11626,
  "U1186": 11627,
  "U1523": 11628,
  "U4239": 11629,
  "U1164": 11630,
  "U554": 11631,
  "U3341": 11632,
  "U3668": 11633,
  "U4816": 11634,
  "U4655": 11635,
  "U4862": 11636,
  "U8937": 11637,
  "U8618": 11638,
  "U1210": 11639,
  "U4004": 11640,
  "U3625": 11641,
  "U8273": 11642,
  "U913": 11643,
  "U9209": 11644,
  "U1905": 11645,
  "U4824": 11646,
  "U5256": 11647,
  "U7567": 11648,
  "U7919": 11649,
  "U3165": 11650,
  "U1361": 11651,
  "U1527": 11652,
  "U5128": 11653,
  "U854": 11654,
  "U2705": 11655,
  "U7686": 11656,
  "U3781": 11657,
  "U6036": 11658,
  "U6790": 11659,
  "U855": 11660,
  "U5854": 11661,
  "U9663": 11662,
  "U5010": 11663,
  "U749": 11664,
  "U3346": 11665,
  "U5837": 11666,
  "U1205": 11667,
  "U4148": 11668,
  "U5288": 11669,
  "U5359": 11670,
  "U9282": 11671,
  "U5553": 11672,
  "U708": 11673,
  "U9425": 11674,
  "U1897": 11675,
  "U9266": 11676,
  "U2275": 11677,
  "U1508": 11678,
  "U5101": 11679,
  "U8072": 11680,
  "U3085": 11681,
  "U7650": 11682,
  "U3081": 11683,
  "U7752": 11684,
  "U8640": 11685,
  "U121": 11686,
  "U4202": 11687,
  "U4553": 11688,
  "U4549": 11689,
  "U7709": 11690,
  "U4158": 11691,
  "U8661": 11692,
  "U8742": 11693,
  "U2025": 11694,
  "U2551": 11695,
  "U640": 11696,
  "U8974": 11697,
  "U5336": 11698,
  "U3908": 11699,
  "U499": 11700,
  "U8980": 11701,
  "U2063": 11702,
  "U2463": 11703,
  "U5924": 11704,
  "U6089": 11705,
  "U9517": 11706,
  "U1045": 11707,
  "U4044": 11708,
  "U4853": 11709,
  "U9428": 11710,
  "U1227": 11711,
  "U8658": 11712,
  "U6987": 11713,
  "U745": 11714,
  "U5400": 11715,
  "U2507": 11716,
  "U7347": 11717,
  "U92": 11718,
  "U6969": 11719,
  "U4046": 11720,
  "U6083": 11721,
  "U245": 11722,
  "U5496": 11723,
  "U6002": 11724,
  "U9834": 11725,
  "U2837": 11726,
  "U9265": 11727,
  "U2220": 11728,
  "U2451": 11729,
  "U5616": 11730,
  "U8587": 11731,
  "U7604": 11732,
  "U1730": 11733,
  "U2485": 11734,
  "U5552": 11735,
  "U7026": 11736,
  "U2940": 11737,
  "U9175": 11738,
  "U1452": 11739,
  "U3699": 11740,
  "U6514": 11741,
  "U4035": 11742,
  "U5156": 11743,
  "U6428": 11744,
  "U8983": 11745,
  "U1951": 11746,
  "U607": 11747,
  "U7743": 11748,
  "U1374": 11749,
  "U705": 11750,
  "U5560": 11751,
  "U669": 11752,
  "U2830": 11753,
  "U6789": 11754,
  "C1503": 11755,
  "U4939": 11756,
  "U358": 11757,
  "U4300": 11758,
  "U8786": 11759,
  "U4797": 11760,
  "U9249": 11761,
  "U5406": 11762,
  "U2790": 11763,
  "U6026": 11764,
  "U717": 11765,
  "U1396": 11766,
  "U271": 11767,
  "C1644": 11768,
  "U9405": 11769,
  "U366": 11770,
  "U3901": 11771,
  "U7500": 11772,
  "U2408": 11773,
  "U950": 11774,
  "U7127": 11775,
  "U300": 11776,
  "U9219": 11777,
  "U5460": 11778,
  "U488": 11779,
  "U6423": 11780,
  "U8946": 11781,
  "U437": 11782,
  "U4794": 11783,
  "U6433": 11784,
  "U8012": 11785,
  "U1217": 11786,
  "U4548": 11787,
  "U753": 11788,
  "U1380": 11789,
  "U1924": 11790,
  "U2192": 11791,
  "U7570": 11792,
  "U8639": 11793,
  "U3435": 11794,
  "U5908": 11795,
  "U6619": 11796,
  "U223": 11797,
  "U1855": 11798,
  "U6214": 11799,
  "U4738": 11800,
  "U633": 11801,
  "U3559": 11802,
  "U919": 11803,
  "U1616": 11804,
  "U7703": 11805,
  "U2752": 11806,
  "U5458": 11807,
  "U2457": 11808,
  "U3261": 11809,
  "U8608": 11810,
  "U8069": 11811,
  "U1061": 11812,
  "U3140": 11813,
  "U582": 11814,
[...]
